<pad>	0
<unk>	0
<s>	0
</s>	0
in	-0
▁a	-1
en	-2
er	-3
▁s	-4
ein	-5
an	-6
ch	-7
▁ein	-8
it	-9
▁w	-10
ing	-11
un	-12
▁b	-13
▁in	-14
▁t	-15
▁d	-16
▁m	-17
on	-18
em	-19
▁A	-20
re	-21
▁E	-22
▁Ein	-23
ar	-24
le	-25
▁M	-26
▁g	-27
▁h	-28
is	-29
▁p	-30
ra	-31
el	-32
▁an	-33
es	-34
ro	-35
▁o	-36
und	-37
▁einem	-38
he	-39
▁S	-40
la	-41
al	-42
▁f	-43
uf	-44
ck	-45
ei	-46
▁F	-47
or	-48
et	-49
▁the	-50
▁c	-51
at	-52
▁st	-53
ir	-54
▁T	-55
▁und	-56
▁mit	-57
▁on	-58
▁auf	-59
▁Man	-60
▁H	-61
▁is	-62
▁and	-63
ung	-64
▁B	-65
▁v	-66
ie	-67
om	-68
▁Mann	-69
and	-70
▁man	-71
▁of	-72
▁l	-73
eh	-74
as	-75
ut	-76
▁K	-77
▁einer	-78
ers	-79
id	-80
ith	-81
il	-82
▁with	-83
us	-84
rau	-85
▁Eine	-86
ter	-87
▁G	-88
▁P	-89
chen	-90
hr	-91
all	-92
im	-93
op	-94
ge	-95
ol	-96
ow	-97
ten	-98
um	-99
▁Frau	-100
▁sit	-101
▁k	-102
ur	-103
st	-104
ot	-105
ed	-106
up	-107
▁wom	-108
▁wh	-109
▁n	-110
▁der	-111
iel	-112
▁z	-113
ich	-114
▁Z	-115
▁sch	-116
▁sp	-117
▁St	-118
ss	-119
wei	-120
am	-121
▁sh	-122
king	-123
▁to	-124
▁Mä	-125
ind	-126
▁are	-127
▁eine	-128
wo	-129
ear	-130
▁j	-131
▁W	-132
ig	-133
▁woman	-134
irt	-135
▁ro	-136
▁bla	-137
▁die	-138
ad	-139
▁r	-140
▁re	-141
ach	-142
eb	-143
▁einen	-144
▁pla	-145
ic	-146
▁J	-147
▁bl	-148
▁at	-149
▁D	-150
oo	-151
▁Zwei	-152
▁Sch	-153
eop	-154
▁im	-155
eople	-156
▁Two	-157
▁y	-158
end	-159
ack	-160
ild	-161
▁play	-162
▁L	-163
ber	-164
ting	-165
og	-166
ug	-167
▁bo	-168
▁R	-169
ent	-170
ier	-171
▁gro	-172
▁steh	-173
erson	-174
▁wear	-175
▁wearing	-176
▁ch	-177
▁sitz	-178
▁stand	-179
her	-180
▁people	-181
ide	-182
▁vor	-183
ite	-184
lein	-185
ßen	-186
lt	-187
ik	-188
ner	-189
▁shirt	-190
oung	-191
▁von	-192
gen	-193
ue	-194
rei	-195
ile	-196
▁sich	-197
ähr	-198
pe	-199
▁be	-200
▁spiel	-201
▁klein	-202
▁white	-203
irl	-204
▁th	-205
dchen	-206
os	-207
▁dem	-208
gt	-209
ts	-210
▁Mädchen	-211
▁young	-212
unge	-213
ver	-214
▁wal	-215
ens	-216
▁girl	-217
eit	-218
war	-219
old	-220
ab	-221
▁Hund	-222
ell	-223
▁dog	-224
▁Person	-225
ard	-226
▁out	-227
▁zu	-228
▁black	-229
▁his	-230
nen	-231
▁Kind	-232
▁boy	-233
ße	-234
warz	-235
▁while	-236
▁wat	-237
▁her	-238
▁tr	-239
ben	-240
▁wei	-241
▁blue	-242
▁red	-243
est	-244
nner	-245
▁i	-246
▁Männer	-247
▁la	-248
ce	-249
ass	-250
leid	-251
ahr	-252
▁schwarz	-253
▁steht	-254
ne	-255
▁Stra	-256
ark	-257
▁sitting	-258
row	-259
te	-260
▁den	-261
ul	-262
ick	-263
▁stre	-264
▁O	-265
der	-266
own	-267
isch	-268
▁sein	-269
ft	-270
ball	-271
▁fr	-272
▁men	-273
▁sitzt	-274
▁hold	-275
▁standing	-276
▁blau	-277
▁playing	-278
über	-279
▁Junge	-280
sch	-281
den	-282
▁geh	-283
▁child	-284
▁Gr	-285
▁loo	-286
▁group	-287
ht	-288
▁co	-289
ont	-290
▁street	-291
piel	-292
au	-293
▁bei	-294
ion	-295
än	-296
uppe	-297
▁e	-298
ält	-299
▁un	-300
men	-301
de	-302
▁über	-303
▁down	-304
▁Straße	-305
▁Mens	-306
ang	-307
ährend	-308
ree	-309
▁während	-310
▁walking	-311
▁ge	-312
ap	-313
▁hat	-314
▁An	-315
▁or	-316
rü	-317
▁Menschen	-318
▁V	-319
▁Gruppe	-320
▁as	-321
ks	-322
round	-323
emd	-324
▁hält	-325
▁spielt	-326
▁le	-327
▁sm	-328
itt	-329
▁um	-330
▁al	-331
▁front	-332
ere	-333
uft	-334
▁aus	-335
▁C	-336
ress	-337
▁holding	-338
▁gra	-339
ren	-340
▁Hemd	-341
inter	-342
▁Personen	-343
▁spr	-344
bo	-345
▁dur	-346
air	-347
if	-348
orm	-349
ange	-350
ink	-351
uch	-352
▁water	-353
eben	-354
ct	-355
▁am	-356
ag	-357
▁N	-358
ain	-359
side	-360
▁das	-361
▁ra	-362
▁car	-363
ern	-364
▁dress	-365
▁tra	-366
hing	-367
ür	-368
ze	-369
▁The	-370
iv	-371
ump	-372
eg	-373
ying	-374
▁cl	-375
▁Th	-376
▁by	-377
▁lä	-378
ehr	-379
eil	-380
▁Wass	-381
▁eines	-382
ock	-383
▁neben	-384
ingt	-385
▁som	-386
▁up	-387
one	-388
ay	-389
▁run	-390
acht	-391
▁Frauen	-392
ak	-393
reen	-394
beit	-395
▁blauen	-396
▁ar	-397
aar	-398
ugh	-399
imm	-400
rad	-401
▁durch	-402
▁Wasser	-403
▁ne	-404
av	-405
▁back	-406
▁ist	-407
▁for	-408
be	-409
ägt	-410
▁wor	-411
▁ihr	-412
▁roten	-413
▁weißen	-414
ans	-415
icht	-416
ies	-417
kat	-418
uit	-419
▁ent	-420
▁jump	-421
▁bu	-422
enn	-423
amer	-424
raun	-425
ip	-426
hn	-427
sen	-428
kleid	-429
▁fl	-430
▁stehen	-431
▁green	-432
▁women	-433
ittle	-434
now	-435
to	-436
▁one	-437
▁orange	-438
▁sw	-439
ler	-440
ong	-441
▁Drei	-442
▁sitzen	-443
ff	-444
hirt	-445
iert	-446
arben	-447
▁ball	-448
▁spielen	-449
▁looking	-450
ährt	-451
▁Hand	-452
▁outside	-453
lass	-454
▁rid	-455
art	-456
▁Kinder	-457
▁geht	-458
▁Three	-459
ore	-460
rom	-461
auf	-462
▁Kleid	-463
▁trägt	-464
arge	-465
elt	-466
▁little	-467
rown	-468
▁fährt	-469
▁Le	-470
▁side	-471
▁large	-472
oot	-473
▁Fahr	-474
▁grü	-475
rough	-476
▁through	-477
▁mo	-478
▁ver	-479
aut	-480
▁ot	-481
ood	-482
▁ho	-483
eln	-484
ellow	-485
amera	-486
▁Leut	-487
▁snow	-488
eren	-489
▁brown	-490
▁yellow	-491
ight	-492
▁two	-493
äl	-494
▁ih	-495
▁braun	-496
▁Ober	-497
farben	-498
alk	-499
les	-500
ure	-501
ril	-502
ly	-503
▁kleines	-504
▁over	-505
▁vers	-506
▁br	-507
▁he	-508
▁gel	-509
▁macht	-510
fen	-511
▁jung	-512
yc	-513
fer	-514
lang	-515
▁springt	-516
▁entlang	-517
▁from	-518
▁pos	-519
▁blon	-520
xt	-521
▁their	-522
▁po	-523
igen	-524
age	-525
▁into	-526
ank	-527
uß	-528
ep	-529
anz	-530
ning	-531
▁zwei	-532
▁person	-533
▁schwarzen	-534
ian	-535
▁ma	-536
▁unter	-537
▁te	-538
▁weiß	-539
▁hand	-540
ine	-541
▁watch	-542
ire	-543
ors	-544
etw	-545
▁kleiner	-546
ud	-547
▁build	-548
▁dr	-549
oard	-550
gr	-551
eck	-552
▁Spiel	-553
▁building	-554
▁U	-555
ame	-556
teil	-557
▁children	-558
uck	-559
ike	-560
eboard	-561
ph	-562
▁ol	-563
esch	-564
▁next	-565
▁other	-566
▁Leute	-567
▁small	-568
rowd	-569
▁near	-570
str	-571
▁Ar	-572
acket	-573
▁Se	-574
kateboard	-575
ort	-576
other	-577
ant	-578
▁dressed	-579
unt	-580
▁some	-581
▁Fel	-582
▁zus	-583
ungen	-584
ischen	-585
▁crowd	-586
ub	-587
▁jacket	-588
ask	-589
spiel	-590
kleidet	-591
ull	-592
lich	-593
älter	-594
▁grass	-595
▁con	-596
▁Sp	-597
▁sie	-598
otor	-599
▁Geb	-600
▁Fahrrad	-601
▁pink	-602
▁gehen	-603
rand	-604
ground	-605
aus	-606
▁I	-607
are	-608
▁do	-609
form	-610
▁etw	-611
▁Oberteil	-612
▁se	-613
walk	-614
▁it	-615
▁Fuß	-616
ist	-617
▁etwas	-618
▁wir	-619
▁älter	-620
▁riding	-621
uh	-622
ehrere	-623
▁running	-624
able	-625
▁People	-626
▁seinem	-627
dy	-628
ück	-629
aby	-630
orts	-631
oc	-632
unter	-633
ger	-634
▁großen	-635
ield	-636
acke	-637
▁Ball	-638
eans	-639
▁around	-640
▁another	-641
let	-642
▁hin	-643
▁off	-644
elm	-645
cht	-646
▁sc	-647
▁Bl	-648
cer	-649
ross	-650
▁Gebä	-651
ity	-652
rille	-653
grund	-654
qu	-655
lat	-656
▁nach	-657
▁field	-658
▁gekleidet	-659
▁sidewalk	-660
ige	-661
▁Hinter	-662
alten	-663
ast	-664
our	-665
lasses	-666
opf	-667
▁beach	-668
ieren	-669
▁Gra	-670
fahr	-671
che	-672
gel	-673
▁air	-674
▁beh	-675
▁Luft	-676
ade	-677
▁Bo	-678
▁er	-679
ander	-680
▁As	-681
▁grünen	-682
▁Mehrere	-683
pp	-684
▁Strand	-685
▁Frei	-686
▁per	-687
▁junge	-688
zeug	-689
▁stands	-690
bei	-691
weg	-692
▁Der	-693
ude	-694
▁läuft	-695
▁behind	-696
ehen	-697
▁sits	-698
itar	-699
▁jumping	-700
ey	-701
▁sind	-702
aum	-703
eball	-704
▁table	-705
▁des	-706
ill	-707
omp	-708
▁läch	-709
zen	-710
mer	-711
▁blond	-712
ture	-713
▁work	-714
farbenen	-715
ose	-716
▁für	-717
▁park	-718
▁Hintergrund	-719
lä	-720
aseball	-721
▁col	-722
way	-723
▁Jungen	-724
asket	-725
▁sur	-726
▁hinter	-727
▁rot	-728
▁arbeit	-729
▁Jacke	-730
▁Freien	-731
▁perform	-732
üh	-733
▁pic	-734
▁anderen	-735
▁Kleidung	-736
▁background	-737
ling	-738
▁schaut	-739
ycle	-740
iling	-741
iat	-742
unk	-743
▁ben	-744
▁tal	-745
board	-746
▁top	-747
▁sk	-748
▁Kopf	-749
ör	-750
▁Schne	-751
cing	-752
▁head	-753
▁bike	-754
▁rock	-755
▁junger	-756
ice	-757
▁fa	-758
▁str	-759
spieler	-760
▁vorbei	-761
▁wall	-762
ucht	-763
▁read	-764
▁city	-765
untain	-766
pf	-767
▁hoch	-768
▁In	-769
iform	-770
eat	-771
ive	-772
üt	-773
▁dan	-774
▁player	-775
▁picture	-776
▁Tisch	-777
▁girls	-778
ennis	-779
▁carr	-780
oto	-781
▁bic	-782
▁looks	-783
Shirt	-784
ootball	-785
ün	-786
sa	-787
uitar	-788
bt	-789
▁li	-790
▁Son	-791
▁andere	-792
▁Nä	-793
agen	-794
angen	-795
menge	-796
▁gelben	-797
len	-798
ühr	-799
aur	-800
get	-801
veral	-802
▁guitar	-803
▁bus	-804
▁that	-805
sp	-806
▁Gebäude	-807
▁hair	-808
do	-809
▁bef	-810
ew	-811
▁dogs	-812
fon	-813
lag	-814
▁Hut	-815
ants	-816
▁Fußball	-817
asketball	-818
▁clot	-819
wimm	-820
iz	-821
eig	-822
▁camera	-823
alt	-824
iger	-825
▁wird	-826
use	-827
▁gu	-828
ation	-829
▁Gras	-830
ust	-831
aking	-832
▁Nähe	-833
▁Fl	-834
▁talking	-835
ert	-836
▁ac	-837
ething	-838
▁something	-839
ath	-840
las	-841
▁beim	-842
zt	-843
▁Tr	-844
▁Schnee	-845
▁kleine	-846
▁kleinen	-847
occer	-848
▁Stad	-849
▁mid	-850
▁older	-851
ah	-852
▁ph	-853
▁ber	-854
kt	-855
mp	-856
ahn	-857
phone	-858
▁Kamera	-859
▁Menschenmenge	-860
▁along	-861
▁walk	-862
▁walks	-863
shirt	-864
▁Park	-865
▁schwarzer	-866
rep	-867
▁Geh	-868
▁Haar	-869
ign	-870
auen	-871
dle	-872
▁lie	-873
ische	-874
aurant	-875
▁lady	-876
af	-877
gether	-878
▁Hunde	-879
▁soccer	-880
▁together	-881
ult	-882
▁blick	-883
▁working	-884
ess	-885
ating	-886
▁food	-887
igh	-888
pen	-889
ufen	-890
▁ihre	-891
▁Boden	-892
▁Gitar	-893
▁boys	-894
ssen	-895
▁Ber	-896
▁gray	-897
▁ad	-898
▁pro	-899
ale	-900
▁en	-901
ction	-902
amm	-903
▁smiling	-904
ennt	-905
umen	-906
▁get	-907
▁him	-908
erst	-909
▁Die	-910
▁Feld	-911
▁rosa	-912
▁uniform	-913
ob	-914
ve	-915
▁has	-916
▁rennt	-917
▁game	-918
▁vol	-919
tern	-920
▁Straßen	-921
enden	-922
▁Vier	-923
beiter	-924
▁Te	-925
▁guy	-926
▁sand	-927
▁sing	-928
▁them	-929
of	-930
▁ab	-931
▁bench	-932
▁plays	-933
▁road	-934
eschä	-935
▁Stadt	-936
ammen	-937
▁grau	-938
▁Asian	-939
▁Skateboard	-940
latz	-941
ather	-942
▁holds	-943
fahrer	-944
▁ihren	-945
atch	-946
ait	-947
är	-948
▁comp	-949
per	-950
ann	-951
eer	-952
▁Aut	-953
▁Four	-954
ald	-955
▁gest	-956
▁hors	-957
▁clim	-958
einander	-959
▁Y	-960
ake	-961
▁skateboard	-962
io	-963
rä	-964
▁sho	-965
▁Gitarre	-966
▁zusammen	-967
se	-968
▁dunk	-969
▁herum	-970
▁Sonnen	-971
▁pants	-972
▁glasses	-973
▁kid	-974
▁Pfer	-975
▁under	-976
▁pur	-977
▁Motor	-978
▁stage	-979
uss	-980
▁coup	-981
▁asiat	-982
▁shorts	-983
ument	-984
▁Sand	-985
led	-986
▁go	-987
▁us	-988
▁carrying	-989
egen	-990
▁Büh	-991
▁dirt	-992
▁suit	-993
▁abo	-994
▁es	-995
edeck	-996
geb	-997
▁Er	-998
wach	-999
▁Ges	-1000
▁bar	-1001
▁fahr	-1002
▁älterer	-1003
▁tre	-1004
hes	-1005
▁baby	-1006
raußen	-1007
ke	-1008
▁befind	-1009
ennen	-1010
▁couple	-1011
▁unterh	-1012
cken	-1013
eigt	-1014
▁bereit	-1015
▁mountain	-1016
aving	-1017
▁climb	-1018
ett	-1019
fit	-1020
osen	-1021
▁face	-1022
▁pain	-1023
▁tree	-1024
▁bicycle	-1025
elle	-1026
▁wait	-1027
▁Bühne	-1028
▁outdo	-1029
▁Jeans	-1030
▁draußen	-1031
eu	-1032
ook	-1033
▁fem	-1034
▁Foto	-1035
ogra	-1036
▁rest	-1037
▁fahren	-1038
fr	-1039
▁set	-1040
▁Brille	-1041
▁Several	-1042
ley	-1043
ping	-1044
▁Gehweg	-1045
je	-1046
▁old	-1047
▁pool	-1048
▁seine	-1049
tert	-1050
▁long	-1051
bre	-1052
cke	-1053
here	-1054
▁Baby	-1055
▁sign	-1056
▁jumps	-1057
kleidung	-1058
ockey	-1059
▁boat	-1060
▁taking	-1061
li	-1062
erk	-1063
▁hell	-1064
ikro	-1065
stru	-1066
▁sun	-1067
▁tow	-1068
▁each	-1069
▁race	-1070
▁sehen	-1071
▁hinunter	-1072
wagen	-1073
uth	-1074
▁sl	-1075
▁Gel	-1076
▁mic	-1077
ischer	-1078
wachsen	-1079
strument	-1080
▁Mikro	-1081
abei	-1082
otogra	-1083
▁chair	-1084
▁dabei	-1085
▁shop	-1086
▁doing	-1087
▁dark	-1088
▁blickt	-1089
▁seinen	-1090
olz	-1091
eing	-1092
▁mus	-1093
▁coat	-1094
▁micro	-1095
ieht	-1096
ha	-1097
pt	-1098
ican	-1099
ien	-1100
ome	-1101
▁als	-1102
▁across	-1103
▁watching	-1104
▁Ch	-1105
▁bag	-1106
▁bet	-1107
och	-1108
▁jeans	-1109
▁Schwimm	-1110
auer	-1111
▁Hän	-1112
▁area	-1113
▁weißer	-1114
▁braunen	-1115
▁flo	-1116
▁Bild	-1117
▁male	-1118
brille	-1119
▁middle	-1120
▁day	-1121
▁wie	-1122
▁liegt	-1123
▁versucht	-1124
▁tanz	-1125
arten	-1126
▁Wand	-1127
▁hands	-1128
▁lächeln	-1129
haar	-1130
ührt	-1131
▁att	-1132
▁train	-1133
▁arbeitet	-1134
ost	-1135
▁spe	-1136
▁Bank	-1137
▁helm	-1138
▁strip	-1139
ish	-1140
▁band	-1141
▁wind	-1142
▁motor	-1143
ate	-1144
▁Baum	-1145
▁store	-1146
▁helmet	-1147
▁Un	-1148
▁dar	-1149
ple	-1150
zug	-1151
▁ground	-1152
▁Baseball	-1153
▁ob	-1154
jo	-1155
ris	-1156
▁ex	-1157
usch	-1158
▁room	-1159
lichen	-1160
als	-1161
ool	-1162
utz	-1163
ßer	-1164
▁de	-1165
▁who	-1166
ingen	-1167
▁Dame	-1168
▁Holz	-1169
eschäft	-1170
▁performing	-1171
ons	-1172
▁toy	-1173
▁Paar	-1174
▁swing	-1175
▁laufen	-1176
▁tragen	-1177
ired	-1178
▁Bür	-1179
▁Mus	-1180
▁par	-1181
▁Essen	-1182
▁sweat	-1183
▁eating	-1184
irm	-1185
▁machen	-1186
▁team	-1187
▁female	-1188
▁lächelt	-1189
▁schauen	-1190
arkt	-1191
▁being	-1192
ied	-1193
isten	-1194
ave	-1195
▁Pf	-1196
▁kur	-1197
▁baseball	-1198
az	-1199
amil	-1200
▁große	-1201
▁brauner	-1202
ll	-1203
ful	-1204
tel	-1205
▁mouth	-1206
uhl	-1207
▁Boot	-1208
▁music	-1209
ikot	-1210
ütze	-1211
▁Wom	-1212
▁ihrem	-1213
▁using	-1214
▁Hü	-1215
▁Men	-1216
▁football	-1217
bla	-1218
▁arm	-1219
▁gather	-1220
▁gestrei	-1221
ende	-1222
▁Klein	-1223
oll	-1224
gerst	-1225
▁striped	-1226
▁Bürgerst	-1227
▁orangefarbenen	-1228
▁ihm	-1229
ition	-1230
▁pass	-1231
▁horse	-1232
▁purple	-1233
▁versch	-1234
▁Sk	-1235
ance	-1236
unst	-1237
▁Bürgersteig	-1238
▁Sh	-1239
▁Auf	-1240
▁gegen	-1241
iese	-1242
▁bik	-1243
▁Motorrad	-1244
ase	-1245
hen	-1246
akes	-1247
▁klet	-1248
▁Pferd	-1249
▁cover	-1250
▁junges	-1251
▁Rad	-1252
▁look	-1253
▁ältere	-1254
▁Hose	-1255
▁prep	-1256
▁toward	-1257
ßt	-1258
aper	-1259
▁zeigt	-1260
ikan	-1261
sche	-1262
▁halten	-1263
iele	-1264
▁enjo	-1265
▁runs	-1266
▁wood	-1267
▁sieht	-1268
▁window	-1269
stand	-1270
haired	-1271
▁Young	-1272
▁adult	-1273
▁cross	-1274
▁spricht	-1275
struction	-1276
▁unterhalten	-1277
ib	-1278
▁el	-1279
platz	-1280
▁liest	-1281
▁arbeiten	-1282
▁Wald	-1283
▁grün	-1284
▁past	-1285
▁Tennis	-1286
iet	-1287
ffit	-1288
over	-1289
▁mar	-1290
▁she	-1291
unglasses	-1292
▁fen	-1293
lefon	-1294
enster	-1295
▁tennis	-1296
▁Bau	-1297
▁put	-1298
▁Berg	-1299
▁schn	-1300
▁Trikot	-1301
▁reading	-1302
▁sunglasses	-1303
▁ag	-1304
ement	-1305
▁Band	-1306
▁bot	-1307
▁ander	-1308
▁Haaren	-1309
cean	-1310
▁clothing	-1311
▁wer	-1312
iving	-1313
▁three	-1314
▁players	-1315
▁microphone	-1316
aft	-1317
att	-1318
▁Gew	-1319
▁color	-1320
ät	-1321
▁There	-1322
ix	-1323
▁app	-1324
▁Meer	-1325
▁flow	-1326
▁Musik	-1327
▁swimm	-1328
▁its	-1329
▁pol	-1330
boy	-1331
ines	-1332
▁betra	-1333
▁catch	-1334
▁basketball	-1335
by	-1336
▁Arm	-1337
▁Tag	-1338
aring	-1339
▁Helm	-1340
▁bele	-1341
▁Stein	-1342
▁ocean	-1343
ry	-1344
rat	-1345
iver	-1346
▁bes	-1347
▁zum	-1348
▁drei	-1349
▁Sonnenbrille	-1350
ves	-1351
eich	-1352
▁show	-1353
▁watches	-1354
itet	-1355
▁dis	-1356
liche	-1357
▁Kunst	-1358
▁during	-1359
▁motorc	-1360
cher	-1361
▁fore	-1362
eld	-1363
ord	-1364
zer	-1365
leep	-1366
▁kids	-1367
▁bright	-1368
▁climbing	-1369
▁gekleidete	-1370
derly	-1371
owboy	-1372
▁seiner	-1373
gest	-1374
▁bun	-1375
▁Fris	-1376
▁Rest	-1377
▁mark	-1378
▁Hosen	-1379
▁again	-1380
▁bear	-1381
▁beob	-1382
▁restaurant	-1383
asch	-1384
ored	-1385
ostü	-1386
ängt	-1387
▁part	-1388
▁Zusch	-1389
els	-1390
▁kn	-1391
▁against	-1392
ri	-1393
arm	-1394
euer	-1395
ucks	-1396
▁Auto	-1397
▁gelb	-1398
▁stick	-1399
▁outfit	-1400
▁Basketball	-1401
lo	-1402
▁Pol	-1403
▁ins	-1404
▁drin	-1405
▁weißem	-1406
ünf	-1407
brel	-1408
▁bow	-1409
▁Gelän	-1410
▁schie	-1411
▁grauen	-1412
▁umbrel	-1413
▁Gesicht	-1414
▁dancing	-1415
urn	-1416
▁Kü	-1417
dern	-1418
▁cap	-1419
▁singt	-1420
ffiti	-1421
▁rides	-1422
▁smile	-1423
▁Felsen	-1424
▁Football	-1425
ften	-1426
▁ihnen	-1427
▁elderly	-1428
▁Erwachsen	-1429
tt	-1430
ubl	-1431
ging	-1432
▁can	-1433
aufen	-1434
▁surf	-1435
▁throw	-1436
leyball	-1437
▁blauem	-1438
▁„	-1439
ces	-1440
raw	-1441
ender	-1442
▁all	-1443
▁high	-1444
▁hill	-1445
▁Mantel	-1446
sst	-1447
▁track	-1448
uhen	-1449
ooden	-1450
▁kick	-1451
▁One	-1452
▁trees	-1453
▁posing	-1454
▁wooden	-1455
▁posiert	-1456
aun	-1457
net	-1458
uchen	-1459
▁schw	-1460
▁about	-1461
▁darauf	-1462
ee	-1463
fl	-1464
od	-1465
öff	-1466
asche	-1467
emand	-1468
▁Shorts	-1469
▁having	-1470
▁outdoor	-1471
ork	-1472
▁cell	-1473
ullover	-1474
▁Schild	-1475
▁covered	-1476
▁klettert	-1477
▁Spielzeug	-1478
aff	-1479
auk	-1480
ampf	-1481
▁they	-1482
▁führt	-1483
▁trink	-1484
▁Mikrofon	-1485
sh	-1486
arb	-1487
uter	-1488
▁open	-1489
▁market	-1490
▁waiting	-1491
▁befindet	-1492
ial	-1493
ume	-1494
▁Bä	-1495
vers	-1496
braun	-1497
▁swimming	-1498
bee	-1499
iss	-1500
▁zw	-1501
anzug	-1502
▁dunkel	-1503
▁getting	-1504
▁colorful	-1505
ycl	-1506
ment	-1507
pack	-1508
▁bal	-1509
▁cost	-1510
schaft	-1511
▁floor	-1512
▁Restaurant	-1513
▁Spr	-1514
hers	-1515
aning	-1516
örper	-1517
▁trying	-1518
▁workers	-1519
▁construction	-1520
pr	-1521
▁"	-1522
ufer	-1523
aul	-1524
▁zur	-1525
▁very	-1526
atue	-1527
▁met	-1528
▁verk	-1529
▁wirft	-1530
▁Blumen	-1531
▁blauer	-1532
▁schwarzem	-1533
▁pl	-1534
▁kit	-1535
▁busy	-1536
▁Fenster	-1537
▁2	-1538
▁Das	-1539
▁cle	-1540
▁ice	-1541
eiten	-1542
▁night	-1543
▁shirts	-1544
▁singing	-1545
▁gekleideter	-1546
iff	-1547
▁Rei	-1548
▁cart	-1549
▁sehr	-1550
▁Regen	-1551
▁Woman	-1552
▁fence	-1553
▁trick	-1554
▁versamm	-1555
hnt	-1556
ater	-1557
▁new	-1558
▁fire	-1559
▁Feuer	-1560
▁Sport	-1561
▁instrument	-1562
▁Weg	-1563
▁This	-1564
▁book	-1565
▁ev	-1566
ager	-1567
kind	-1568
▁Eis	-1569
itten	-1570
▁Raum	-1571
licher	-1572
▁Met	-1573
▁path	-1574
▁rennen	-1575
▁Pullover	-1576
▁Her	-1577
▁zusch	-1578
arbeiter	-1579
▁Arbeiter	-1580
▁Be	-1581
artet	-1582
▁oder	-1583
▁brick	-1584
▁light	-1585
▁rotem	-1586
▁stair	-1587
▁compet	-1588
ckt	-1589
ject	-1590
▁Fre	-1591
▁lad	-1592
▁son	-1593
▁Zeit	-1594
▁isst	-1595
▁af	-1596
ient	-1597
less	-1598
▁gen	-1599
▁hang	-1600
▁Männern	-1601
▁bat	-1602
unden	-1603
▁line	-1604
▁Anzug	-1605
▁Wiese	-1606
▁board	-1607
▁laying	-1608
▁Kindern	-1609
▁anderer	-1610
ium	-1611
ond	-1612
auft	-1613
▁cut	-1614
▁flag	-1615
▁Ver	-1616
▁kar	-1617
▁pie	-1618
▁roter	-1619
▁sleep	-1620
▁truck	-1621
▁langen	-1622
▁wartet	-1623
ated	-1624
▁tan	-1625
igare	-1626
▁Rück	-1627
▁body	-1628
▁hats	-1629
▁ride	-1630
▁paper	-1631
ountain	-1632
▁clothes	-1633
ac	-1634
▁Ab	-1635
dler	-1636
▁Wei	-1637
▁bed	-1638
reppe	-1639
▁beard	-1640
▁essen	-1641
▁Schutz	-1642
▁inside	-1643
▁others	-1644
▁kitchen	-1645
▁schwarze	-1646
▁me	-1647
▁bre	-1648
▁Some	-1649
▁Poliz	-1650
▁cellphone	-1651
rol	-1652
urt	-1653
▁Sur	-1654
▁pus	-1655
chtet	-1656
▁Haus	-1657
▁fest	-1658
körper	-1659
▁weiße	-1660
▁grassy	-1661
▁making	-1662
▁Frisbee	-1663
▁surround	-1664
▁Br	-1665
aben	-1666
▁sil	-1667
becken	-1668
▁Rucks	-1669
▁river	-1670
▁gestreiften	-1671
ahl	-1672
eep	-1673
tte	-1674
▁Maul	-1675
▁mach	-1676
▁Bluse	-1677
▁Fluss	-1678
▁Spieler	-1679
▁backpack	-1680
▁posieren	-1681
ym	-1682
lam	-1683
▁so	-1684
▁takes	-1685
ief	-1686
▁art	-1687
▁big	-1688
▁sell	-1689
▁skat	-1690
▁Stuhl	-1691
▁metal	-1692
▁werden	-1693
▁umbrella	-1694
sk	-1695
▁Ob	-1696
▁hel	-1697
▁ind	-1698
stück	-1699
▁Buch	-1700
▁auss	-1701
▁gril	-1702
achtet	-1703
ooking	-1704
▁beleb	-1705
▁towards	-1706
▁motorcycle	-1707
hä	-1708
sc	-1709
iew	-1710
ogen	-1711
immer	-1712
änger	-1713
▁full	-1714
▁Handy	-1715
boarder	-1716
▁voller	-1717
▁Oberkörper	-1718
zeit	-1719
▁Pap	-1720
▁cre	-1721
▁rep	-1722
▁was	-1723
▁Fünf	-1724
▁gold	-1725
▁step	-1726
▁viel	-1727
▁gesch	-1728
▁bereitet	-1729
▁enjoying	-1730
▁springen	-1731
hal	-1732
ots	-1733
este	-1734
ersch	-1735
▁Viele	-1736
omm	-1737
phon	-1738
▁Vor	-1739
▁schl	-1740
ierten	-1741
▁Hügel	-1742
▁paint	-1743
▁überqu	-1744
igarette	-1745
eid	-1746
ops	-1747
pla	-1748
▁Um	-1749
▁Metall	-1750
▁Kleinkind	-1751
▁em	-1752
aves	-1753
band	-1754
▁fis	-1755
▁ger	-1756
▁warten	-1757
▁betrachtet	-1758
igt	-1759
▁Bus	-1760
▁Kar	-1761
▁Pro	-1762
ellen	-1763
▁tank	-1764
▁ready	-1765
ho	-1766
▁box	-1767
ensch	-1768
ummer	-1769
▁hard	-1770
▁genie	-1771
▁zwischen	-1772
ny	-1773
etr	-1774
vel	-1775
scht	-1776
▁ele	-1777
▁whe	-1778
▁Snow	-1779
▁En	-1780
ellt	-1781
▁pra	-1782
schirm	-1783
▁schlä	-1784
▁blonde	-1785
ys	-1786
ini	-1787
ecke	-1788
wand	-1789
▁Afr	-1790
▁Five	-1791
▁Child	-1792
▁Leuten	-1793
▁schläft	-1794
äss	-1795
▁Eink	-1796
▁flie	-1797
▁Asiat	-1798
▁Stock	-1799
▁piece	-1800
▁zieht	-1801
▁tanzen	-1802
▁sweater	-1803
▁painting	-1804
ette	-1805
ving	-1806
▁sub	-1807
utter	-1808
▁lake	-1809
▁oben	-1810
▁umge	-1811
altung	-1812
▁photogra	-1813
▁Bauarbeiter	-1814
bb	-1815
häut	-1816
reibt	-1817
▁Schn	-1818
▁Seil	-1819
▁pull	-1820
▁Mütze	-1821
▁above	-1822
edeckten	-1823
▁several	-1824
lem	-1825
ohn	-1826
immt	-1827
▁alter	-1828
▁lehnt	-1829
▁reitet	-1830
co	-1831
ane	-1832
ise	-1833
fall	-1834
▁Bet	-1835
▁Markt	-1836
▁going	-1837
▁Händen	-1838
ird	-1839
ope	-1840
▁kne	-1841
▁rol	-1842
▁Schl	-1843
▁fall	-1844
▁lila	-1845
▁stud	-1846
ichtung	-1847
▁Arbeit	-1848
▁beobachtet	-1849
ail	-1850
blau	-1851
▁Renn	-1852
▁many	-1853
▁dance	-1854
▁snowy	-1855
▁stone	-1856
▁Rennen	-1857
▁colored	-1858
▁miteinander	-1859
geh	-1860
man	-1861
ding	-1862
▁cor	-1863
äufer	-1864
▁brid	-1865
▁buck	-1866
▁vest	-1867
▁wave	-1868
▁Bäumen	-1869
▁Rucksack	-1870
▁herunter	-1871
▁shopping	-1872
▁dav	-1873
▁ges	-1874
eiter	-1875
iegel	-1876
▁lang	-1877
▁onto	-1878
▁paar	-1879
▁class	-1880
▁tanzt	-1881
▁uniforms	-1882
▁surrounded	-1883
asse	-1884
iend	-1885
ieden	-1886
▁Schul	-1887
▁ihrer	-1888
▁worker	-1889
oon	-1890
ents	-1891
▁Gro	-1892
▁Tra	-1893
▁gle	-1894
ining	-1895
ostüm	-1896
▁Zaun	-1897
weißer	-1898
▁Famil	-1899
▁Radfahrer	-1900
▁Ro	-1901
▁Ger	-1902
▁Zug	-1903
▁pad	-1904
chten	-1905
▁bott	-1906
▁schne	-1907
▁smiles	-1908
▁crowded	-1909
ax	-1910
du	-1911
ets	-1912
änn	-1913
mann	-1914
▁Mit	-1915
▁tod	-1916
▁gear	-1917
▁männ	-1918
enager	-1919
▁photo	-1920
aschine	-1921
▁beside	-1922
▁outdoors	-1923
br	-1924
deo	-1925
ebt	-1926
orb	-1927
urb	-1928
▁Or	-1929
amen	-1930
bahn	-1931
▁vom	-1932
▁swim	-1933
▁event	-1934
▁adults	-1935
▁convers	-1936
▁schiebt	-1937
▁schneeb	-1938
ül	-1939
▁Aus	-1940
▁Land	-1941
▁pole	-1942
dition	-1943
▁Gegen	-1944
▁haben	-1945
otograf	-1946
▁Gewäss	-1947
▁befinden	-1948
▁drinking	-1949
app	-1950
sel	-1951
änk	-1952
ists	-1953
room	-1954
▁Out	-1955
▁alt	-1956
▁öff	-1957
aukel	-1958
rücke	-1959
haarige	-1960
arf	-1961
ral	-1962
feld	-1963
▁See	-1964
▁Amer	-1965
▁poin	-1966
▁house	-1967
▁phone	-1968
▁orangefarben	-1969
een	-1970
▁cr	-1971
▁fe	-1972
▁wo	-1973
Bahn	-1974
eine	-1975
udes	-1976
ungs	-1977
▁Pla	-1978
▁pre	-1979
▁Küche	-1980
▁famil	-1981
▁Zuschauer	-1982
off	-1983
iful	-1984
▁gem	-1985
ables	-1986
läche	-1987
▁door	-1988
▁drum	-1989
▁frei	-1990
▁star	-1991
▁Seite	-1992
autiful	-1993
▁Einkauf	-1994
▁fountain	-1995
▁gathered	-1996
▁Schwimmbecken	-1997
itz	-1998
▁hit	-1999
▁leap	-2000
▁view	-2001
▁Welle	-2002
▁kurzen	-2003
▁hanging	-2004
ste	-2005
ämp	-2006
▁Bade	-2007
▁rain	-2008
▁Beton	-2009
▁Rücken	-2010
▁Schlag	-2011
▁bridge	-2012
▁subway	-2013
▁prepare	-2014
arn	-2015
gang	-2016
▁bew	-2017
▁com	-2018
▁gym	-2019
▁leg	-2020
▁Flag	-2021
▁arms	-2022
▁Sprung	-2023
▁Treppe	-2024
▁family	-2025
▁friend	-2026
▁mitten	-2027
▁African	-2028
▁flowers	-2029
▁umgeben	-2030
▁tradition	-2031
▁verschieden	-2032
uz	-2033
cre	-2034
fro	-2035
ram	-2036
▁Bü	-2037
iges	-2038
▁Gem	-2039
▁Rol	-2040
▁lot	-2041
eidet	-2042
emden	-2043
ittel	-2044
▁away	-2045
▁spaz	-2046
▁teil	-2047
▁skirt	-2048
▁telefon	-2049
▁preparing	-2050
ime	-2051
▁ey	-2052
aged	-2053
anst	-2054
▁Ras	-2055
▁lin	-2056
esten	-2057
stein	-2058
▁wheel	-2059
▁object	-2060
▁costume	-2061
▁leaning	-2062
▁toddler	-2063
▁verkauft	-2064
ok	-2065
ats	-2066
bar	-2067
tem	-2068
▁Ka	-2069
hair	-2070
ious	-2071
▁cra	-2072
athon	-2073
▁Many	-2074
▁attem	-2075
▁offic	-2076
▁short	-2077
▁steps	-2078
▁hockey	-2079
▁schein	-2080
▁sleeping	-2081
▁beautiful	-2082
▁num	-2083
▁ski	-2084
▁does	-2085
▁guys	-2086
▁make	-2087
▁Autos	-2088
▁after	-2089
▁trail	-2090
▁forest	-2091
▁gerade	-2092
▁trinkt	-2093
▁Familie	-2094
▁fishing	-2095
▁schwimm	-2096
▁Children	-2097
▁versammelt	-2098
chs	-2099
out	-2100
uff	-2101
▁Ha	-2102
ears	-2103
ocks	-2104
▁fil	-2105
▁Getr	-2106
▁form	-2107
▁rope	-2108
▁take	-2109
weißen	-2110
▁plaid	-2111
▁shoes	-2112
▁machine	-2113
cl	-2114
orn	-2115
uge	-2116
üll	-2117
eten	-2118
Spiel	-2119
▁benut	-2120
▁schla	-2121
▁Schwarz	-2122
▁rosafarbenen	-2123
dt	-2124
tr	-2125
▁da	-2126
aten	-2127
ives	-2128
▁Bla	-2129
▁ihn	-2130
attoo	-2131
▁four	-2132
▁sonn	-2133
isches	-2134
▁hängt	-2135
▁offen	-2136
▁Cowboy	-2137
▁Papier	-2138
▁Geschäft	-2139
anstaltung	-2140
▁schneidet	-2141
top	-2142
▁Ind	-2143
▁equ	-2144
▁Comp	-2145
▁ange	-2146
▁mehr	-2147
▁check	-2148
wer	-2149
▁kü	-2150
▁Kap	-2151
ersey	-2152
stler	-2153
▁like	-2154
zimmer	-2155
▁asian	-2156
▁court	-2157
▁police	-2158
▁stairs	-2159
▁graffiti	-2160
▁Kunststück	-2161
▁telefoniert	-2162
ges	-2163
onz	-2164
unn	-2165
▁gr	-2166
▁Schü	-2167
▁kämp	-2168
entlem	-2169
gruppe	-2170
▁Wagen	-2171
▁einige	-2172
▁belebten	-2173
ace	-2174
ash	-2175
aden	-2176
▁cam	-2177
ühren	-2178
▁Bahn	-2179
▁Verk	-2180
▁malt	-2181
bedeck	-2182
▁balan	-2183
▁pract	-2184
▁bunten	-2185
▁fangen	-2186
▁selling	-2187
▁shirtless	-2188
▁asiatische	-2189
olf	-2190
erin	-2191
lead	-2192
▁beg	-2193
▁geb	-2194
▁gef	-2195
▁sky	-2196
stung	-2197
▁Fels	-2198
▁tall	-2199
▁Reihe	-2200
▁Shirt	-2201
▁nimmt	-2202
▁rocks	-2203
▁sunny	-2204
▁jemand	-2205
▁jersey	-2206
▁setting	-2207
▁spazieren	-2208
ife	-2209
ßes	-2210
olin	-2211
▁Kre	-2212
immel	-2213
▁cont	-2214
▁land	-2215
achten	-2216
yclist	-2217
▁glass	-2218
▁großer	-2219
▁Gewässer	-2220
▁schwimmt	-2221
yp	-2222
ugg	-2223
öpf	-2224
alen	-2225
ings	-2226
ommt	-2227
rift	-2228
▁cup	-2229
▁opp	-2230
ching	-2231
eller	-2232
▁pose	-2233
▁rote	-2234
▁denen	-2235
▁Feuerw	-2236
▁freiem	-2237
▁racing	-2238
olleyball	-2239
▁schneebedeckten	-2240
ric	-2241
ser	-2242
ikum	-2243
otos	-2244
raße	-2245
▁ser	-2246
▁tro	-2247
eigen	-2248
inger	-2249
steig	-2250
unnen	-2251
ycles	-2252
utsche	-2253
▁equip	-2254
rüstung	-2255
▁chairs	-2256
▁cowboy	-2257
▁vielen	-2258
▁blicken	-2259
▁putting	-2260
▁schlägt	-2261
▁Kopfbedeck	-2262
▁3	-2263
hed	-2264
▁gl	-2265
bank	-2266
▁jog	-2267
ahrer	-2268
▁Bart	-2269
▁Rock	-2270
▁both	-2271
▁chas	-2272
▁flip	-2273
▁mitt	-2274
▁ramp	-2275
▁Hände	-2276
▁match	-2277
ublikum	-2278
▁Brücke	-2279
▁Mutter	-2280
▁corner	-2281
▁gentlem	-2282
▁pushing	-2283
▁American	-2284
▁Gebäudes	-2285
▁sonnigen	-2286
▁throwing	-2287
▁Fußballspieler	-2288
ibt	-2289
inn	-2290
mel	-2291
ofa	-2292
ügen	-2293
▁Tor	-2294
jacke	-2295
ublic	-2296
zogen	-2297
▁betw	-2298
▁blow	-2299
▁have	-2300
lassen	-2301
ughing	-2302
▁drink	-2303
▁slide	-2304
▁Himmel	-2305
▁ausseh	-2306
▁fliegt	-2307
▁listen	-2308
▁parade	-2309
▁public	-2310
▁between	-2311
▁Publikum	-2312
▁fotograf	-2313
▁sweatshirt	-2314
▁volleyball	-2315
fts	-2316
▁Kr	-2317
ches	-2318
ehic	-2319
raut	-2320
ugen	-2321
▁Bik	-2322
▁Mar	-2323
▁pat	-2324
ühlen	-2325
▁hebt	-2326
▁kiss	-2327
▁Platz	-2328
▁Rasen	-2329
▁couch	-2330
▁Tasche	-2331
▁flower	-2332
▁hinauf	-2333
▁lachen	-2334
▁ladies	-2335
▁kämpfen	-2336
▁Richtung	-2337
▁Teenager	-2338
▁laughing	-2339
▁equipment	-2340
hne	-2341
atte	-2342
▁Sie	-2343
▁ref	-2344
cture	-2345
iting	-2346
▁dist	-2347
▁pick	-2348
blauen	-2349
▁fruit	-2350
▁works	-2351
▁Hemden	-2352
▁Wander	-2353
▁someone	-2354
▁Geländer	-2355
▁computer	-2356
▁instruments	-2357
dem	-2358
▁lo	-2359
▁wr	-2360
ests	-2361
ival	-2362
jekt	-2363
lage	-2364
port	-2365
▁hot	-2366
▁squ	-2367
ehmen	-2368
endes	-2369
▁Hoch	-2370
▁rail	-2371
▁scen	-2372
▁vend	-2373
▁Kampf	-2374
▁Weste	-2375
▁inter	-2376
▁shoul	-2377
▁vehic	-2378
▁displa	-2379
▁grünem	-2380
▁Schutzh	-2381
▁dunklen	-2382
▁Graffiti	-2383
▁pictures	-2384
ula	-2385
stic	-2386
▁Alt	-2387
assen	-2388
auern	-2389
stuhl	-2390
▁plat	-2391
▁vier	-2392
▁hohen	-2393
▁woods	-2394
▁Zeitung	-2395
▁plastic	-2396
ins	-2397
▁ru	-2398
▁glo	-2399
crete	-2400
▁fish	-2401
aschen	-2402
▁Stück	-2403
▁party	-2404
▁poses	-2405
▁reach	-2406
▁which	-2407
schuhen	-2408
▁Outfit	-2409
▁winter	-2410
▁concrete	-2411
▁playground	-2412
alm	-2413
ärt	-2414
▁Bad	-2415
▁Che	-2416
▁Kan	-2417
▁Par	-2418
▁bel	-2419
▁dre	-2420
▁pit	-2421
▁rau	-2422
iolet	-2423
▁Hals	-2424
▁bird	-2425
▁dire	-2426
▁dock	-2427
▁hood	-2428
▁padd	-2429
phones	-2430
ünstler	-2431
▁number	-2432
▁statue	-2433
▁Erwachsene	-2434
▁Spielplatz	-2435
▁Kopfbedeckung	-2436
wn	-2437
ely	-2438
ems	-2439
ese	-2440
ron	-2441
ädt	-2442
eget	-2443
ward	-2444
weiß	-2445
▁smo	-2446
iding	-2447
ommen	-2448
ugend	-2449
▁Bier	-2450
▁yard	-2451
▁Mannes	-2452
▁midair	-2453
▁weißes	-2454
▁asiatischer	-2455
set	-2456
ute	-2457
ctor	-2458
hemd	-2459
ical	-2460
▁Hof	-2461
▁guck	-2462
▁schm	-2463
▁Fisch	-2464
▁Schla	-2465
▁Schirm	-2466
▁attemp	-2467
haariger	-2468
▁blondes	-2469
▁mittler	-2470
▁zuschauen	-2471
hak	-2472
hut	-2473
ids	-2474
▁ed	-2475
fest	-2476
haus	-2477
stre	-2478
▁Leb	-2479
ience	-2480
▁Pool	-2481
▁Schw	-2482
▁Sold	-2483
▁Team	-2484
▁stop	-2485
▁bikes	-2486
▁davon	-2487
ogg	-2488
ven	-2489
ampe	-2490
uden	-2491
▁row	-2492
acken	-2493
▁Dach	-2494
▁nack	-2495
fläche	-2496
▁Augen	-2497
▁shore	-2498
▁veget	-2499
▁Freund	-2500
▁Hockey	-2501
▁Winter	-2502
▁genießt	-2503
▁mehrere	-2504
▁bereiten	-2505
▁dunkelhäut	-2506
▁überqueren	-2507
bl	-2508
▁ü	-2509
etz	-2510
▁Cl	-2511
ally	-2512
▁apr	-2513
läger	-2514
markt	-2515
▁alte	-2516
▁amer	-2517
▁anim	-2518
▁Blick	-2519
▁Decke	-2520
▁blaue	-2521
▁reads	-2522
▁Jemand	-2523
▁Jugend	-2524
▁attire	-2525
▁seated	-2526
geschäft	-2527
▁hellbraun	-2528
▁Instrument	-2529
ony	-2530
uhe	-2531
▁hü	-2532
eder	-2533
urch	-2534
werk	-2535
▁unt	-2536
ators	-2537
unnel	-2538
▁just	-2539
▁left	-2540
▁schö	-2541
▁lacht	-2542
▁tritt	-2543
▁Lebens	-2544
entlichen	-2545
▁Schaukel	-2546
▁distance	-2547
▁karierten	-2548
▁mittleren	-2549
▁Zuschauern	-2550
lee	-2551
lie	-2552
head	-2553
üllt	-2554
▁aud	-2555
▁gew	-2556
untry	-2557
▁Gemü	-2558
▁Tanz	-2559
▁beer	-2560
▁best	-2561
▁ries	-2562
▁what	-2563
▁Mauer	-2564
▁blank	-2565
▁cream	-2566
▁repar	-2567
schrift	-2568
▁Alters	-2569
▁Schauf	-2570
▁school	-2571
▁benutzt	-2572
▁cooking	-2573
▁cutting	-2574
▁Feuerwehr	-2575
rt	-2576
▁1	-2577
afe	-2578
ahe	-2579
aks	-2580
ugt	-2581
bild	-2582
iker	-2583
imer	-2584
suit	-2585
▁wre	-2586
ammer	-2587
innen	-2588
urban	-2589
▁Stre	-2590
▁Wett	-2591
▁bags	-2592
▁home	-2593
▁Menge	-2594
▁cheer	-2595
▁cliff	-2596
▁newsp	-2597
▁vests	-2598
▁where	-2599
schwarz	-2600
▁Little	-2601
▁basket	-2602
▁pulling	-2603
▁buildings	-2604
dr	-2605
pl	-2606
int	-2607
its	-2608
ört	-2609
▁Ak	-2610
▁nä	-2611
▁qu	-2612
▁sn	-2613
ians	-2614
▁Tür	-2615
elmen	-2616
▁Glas	-2617
▁Obst	-2618
▁grei	-2619
▁teen	-2620
▁tent	-2621
rädern	-2622
▁Schür	-2623
▁alten	-2624
▁grill	-2625
▁rider	-2626
▁städt	-2627
▁Einige	-2628
▁Surfer	-2629
amerikan	-2630
▁Getränk	-2631
▁Lebensm	-2632
▁einigen	-2633
▁station	-2634
▁unterhält	-2635
ape	-2636
ift	-2637
▁Ol	-2638
cert	-2639
▁inf	-2640
▁var	-2641
brett	-2642
iking	-2643
▁Girl	-2644
▁Mund	-2645
▁Roll	-2646
▁bare	-2647
▁bowl	-2648
▁dies	-2649
▁nahe	-2650
▁Fotos	-2651
▁Schal	-2652
▁Mensch	-2653
▁tattoo	-2654
▁appears	-2655
▁practic	-2656
▁zusieht	-2657
▁Baseballspieler	-2658
des	-2659
▁Co	-2660
aren	-2661
gebä	-2662
▁Bar	-2663
▁Geg	-2664
▁hug	-2665
anten	-2666
▁Fußg	-2667
▁Sofa	-2668
▁bull	-2669
▁edge	-2670
▁stru	-2671
▁Mitte	-2672
▁Weihn	-2673
ctators	-2674
▁Geschä	-2675
▁gleich	-2676
▁großes	-2677
▁violet	-2678
▁showing	-2679
▁crossing	-2680
▁zuschaut	-2681
▁mountains	-2682
▁Volleyball	-2683
▁nebeneinander	-2684
aw	-2685
hü	-2686
▁–	-2687
oph	-2688
ved	-2689
▁pr	-2690
pfen	-2691
ußer	-2692
▁rut	-2693
achts	-2694
ights	-2695
▁Bein	-2696
▁bubb	-2697
▁happ	-2698
▁spre	-2699
▁außer	-2700
▁lässt	-2701
▁scarf	-2702
ostümen	-2703
▁Roller	-2704
▁Uniform	-2705
▁Computer	-2706
▁structure	-2707
▁Schlagzeug	-2708
aub	-2709
igk	-2710
ott	-2711
▁ir	-2712
afet	-2713
gend	-2714
halb	-2715
look	-2716
▁Typ	-2717
▁afr	-2718
▁but	-2719
▁cro	-2720
▁fix	-2721
eifen	-2722
▁Dies	-2723
▁Herr	-2724
▁draw	-2725
▁Grill	-2726
▁Women	-2727
▁elect	-2728
▁kniet	-2729
▁right	-2730
▁schüt	-2731
▁farben	-2732
▁filled	-2733
▁horses	-2734
▁nachts	-2735
▁nearby	-2736
▁orangen	-2737
▁zusehen	-2738
▁performs	-2739
▁Gegenstand	-2740
oß	-2741
▁El	-2742
itzt	-2743
rich	-2744
▁ang	-2745
▁few	-2746
▁med	-2747
▁mil	-2748
eling	-2749
kampf	-2750
▁mart	-2751
▁pile	-2752
▁rela	-2753
▁Nacht	-2754
▁apron	-2755
yclists	-2756
▁hinten	-2757
▁carries	-2758
▁driving	-2759
▁Einkaufs	-2760
▁Zigarette	-2761
▁versuchen	-2762
ery	-2763
gew	-2764
ous	-2765
▁Sm	-2766
ales	-2767
sent	-2768
▁Art	-2769
▁Ker	-2770
uring	-2771
▁Skat	-2772
▁Ufer	-2773
▁gibt	-2774
▁kurz	-2775
▁mult	-2776
▁voll	-2777
roller	-2778
uchten	-2779
▁Braut	-2780
▁Group	-2781
▁Sonne	-2782
▁Unter	-2783
▁break	-2784
▁gelber	-2785
▁leaves	-2786
▁treten	-2787
▁bowling	-2788
▁friends	-2789
▁scheint	-2790
▁verschn	-2791
▁mehreren	-2792
▁beobachten	-2793
▁Re	-2794
cord	-2795
erne	-2796
iten	-2797
▁gep	-2798
sport	-2799
▁Bett	-2800
▁Part	-2801
▁Pfad	-2802
▁cars	-2803
▁goal	-2804
▁gogg	-2805
▁Armen	-2806
▁Handt	-2807
▁boots	-2808
▁parked	-2809
▁cigarette	-2810
we	-2811
öl	-2812
grü	-2813
▁Kn	-2814
▁pe	-2815
land	-2816
latt	-2817
▁ath	-2818
▁net	-2819
▁Zelt	-2820
▁Trick	-2821
▁fängt	-2822
▁lined	-2823
▁talks	-2824
▁Flagge	-2825
▁Garten	-2826
▁Nummer	-2827
▁raucht	-2828
▁shovel	-2829
▁vendor	-2830
▁display	-2831
▁goggles	-2832
▁Fahrzeug	-2833
▁farbenfro	-2834
▁Weihnachts	-2835
▁photograph	-2836
▁snowboarder	-2837
▁öffentlichen	-2838
fe	-2839
ia	-2840
ause	-2841
bers	-2842
isen	-2843
ivid	-2844
umes	-2845
▁Con	-2846
▁Spe	-2847
▁hil	-2848
▁mud	-2849
iffer	-2850
▁Surf	-2851
▁bärt	-2852
▁coff	-2853
▁unbe	-2854
lasche	-2855
rennen	-2856
▁Ferne	-2857
▁beige	-2858
▁block	-2859
▁drums	-2860
▁nicht	-2861
▁Gemüse	-2862
▁Stange	-2863
▁Stufen	-2864
▁bottle	-2865
▁jungen	-2866
▁Schürze	-2867
▁Trikots	-2868
▁martial	-2869
▁painted	-2870
▁railing	-2871
▁trinken	-2872
▁vehicle	-2873
▁gestreift	-2874
▁betrachten	-2875
▁Snowboarder	-2876
▁skateboarder	-2877
▁verschneiten	-2878
amp	-2879
▁Sw	-2880
▁che	-2881
▁weg	-2882
allow	-2883
▁Back	-2884
▁eyes	-2885
fahren	-2886
onzert	-2887
▁alley	-2888
▁beide	-2889
▁lying	-2890
▁rocky	-2891
ifahrer	-2892
▁coffee	-2893
▁flying	-2894
▁führen	-2895
▁roller	-2896
▁concert	-2897
▁dresses	-2898
▁smoking	-2899
▁Gehsteig	-2900
▁Wanderer	-2901
ps	-2902
hör	-2903
ken	-2904
oth	-2905
ush	-2906
aust	-2907
fern	-2908
nast	-2909
olgt	-2910
pher	-2911
▁Bow	-2912
▁Tau	-2913
▁cur	-2914
afety	-2915
mütze	-2916
ormen	-2917
änzer	-2918
▁arts	-2919
▁bald	-2920
▁mask	-2921
▁shot	-2922
▁sort	-2923
▁time	-2924
▁verw	-2925
ession	-2926
ftball	-2927
gebung	-2928
▁flags	-2929
▁relax	-2930
▁splas	-2931
▁viele	-2932
▁waves	-2933
ighting	-2934
▁Indian	-2935
▁liegen	-2936
▁mother	-2937
▁safety	-2938
▁bathing	-2939
▁jackets	-2940
▁kicking	-2941
▁younger	-2942
▁prepares	-2943
▁swinging	-2944
▁Snowboard	-2945
▁newspaper	-2946
▁conversation	-2947
▁Veranstaltung	-2948
hof	-2949
hän	-2950
ips	-2951
rot	-2952
üst	-2953
▁no	-2954
ages	-2955
hund	-2956
inkt	-2957
▁dig	-2958
anzen	-2959
immen	-2960
itary	-2961
▁Geld	-2962
▁empt	-2963
▁khak	-2964
▁roof	-2965
iental	-2966
laster	-2967
straße	-2968
▁Rampe	-2969
▁bunch	-2970
▁unten	-2971
▁bucket	-2972
▁gloves	-2973
▁heraus	-2974
ifferent	-2975
▁blonden	-2976
▁country	-2977
▁parking	-2978
untergang	-2979
▁costumes	-2980
▁einander	-2981
▁oriental	-2982
▁außerhalb	-2983
▁gentleman	-2984
▁Tennisball	-2985
▁practicing	-2986
▁spectators	-2987
sam	-2988
ates	-2989
ogel	-2990
ooks	-2991
stik	-2992
▁Boy	-2993
▁New	-2994
▁tie	-2995
ading	-2996
atten	-2997
iehen	-2998
iness	-2999
itzen	-3000
▁gele	-3001
▁sold	-3002
▁this	-3003
▁uses	-3004
erlead	-3005
letter	-3006
▁close	-3007
▁oppos	-3008
▁wrest	-3009
▁ladder	-3010
▁onlook	-3011
▁Plastik	-3012
▁ausgest	-3013
▁cleaning	-3014
▁Cheerlead	-3015
▁Fußgänger	-3016
▁different	-3017
▁listening	-3018
▁competition	-3019
▁Sonnenuntergang	-3020
Sch	-3021
urf	-3022
▁vi	-3023
boot	-3024
entr	-3025
▁ear	-3026
▁wet	-3027
ctive	-3028
ividu	-3029
schen	-3030
▁dass	-3031
▁weit	-3032
liches	-3033
▁items	-3034
▁scene	-3035
▁there	-3036
▁Kostüm	-3037
▁Läufer	-3038
▁greift	-3039
▁zurück	-3040
farbener	-3041
▁Bowling	-3042
▁bearded	-3043
▁blanket	-3044
▁rutscht	-3045
▁staring	-3046
▁leuchten	-3047
▁skateboarding	-3048
ele	-3049
irc	-3050
kor	-3051
mas	-3052
oop	-3053
▁bem	-3054
▁fre	-3055
▁Tour	-3056
▁Trom	-3057
▁desk	-3058
▁lawn	-3059
▁meal	-3060
▁spra	-3061
▁turn	-3062
ugzeug	-3063
▁empty	-3064
▁hilft	-3065
▁rotes	-3066
iformen	-3067
looking	-3068
▁Ziegel	-3069
▁bikini	-3070
▁braune	-3071
▁giving	-3072
▁surfer	-3073
▁Telefon	-3074
▁balloon	-3075
▁various	-3076
▁Kleidern	-3077
▁audience	-3078
▁bicycles	-3079
▁Aufschrift	-3080
▁fotografiert	-3081
alb	-3082
ays	-3083
spr	-3084
eibe	-3085
ized	-3086
vert	-3087
▁fla	-3088
▁fun	-3089
▁lit	-3090
▁not	-3091
achen	-3092
endet	-3093
▁Korb	-3094
▁Turn	-3095
▁Damen	-3096
▁Hüten	-3097
▁Sweat	-3098
▁Vogel	-3099
▁among	-3100
▁leaps	-3101
▁reden	-3102
▁rodeo	-3103
▁surft	-3104
Spieler	-3105
▁beiden	-3106
▁drinks	-3107
▁golden	-3108
▁Klassen	-3109
▁Musiker	-3110
▁Someone	-3111
▁Polizist	-3112
▁bärtiger	-3113
▁männliche	-3114
▁onlookers	-3115
▁Kampfsport	-3116
lar	-3117
lin	-3118
▁ko	-3119
apan	-3120
lamm	-3121
ppen	-3122
▁Bre	-3123
▁Ski	-3124
▁pav	-3125
▁wed	-3126
cting	-3127
▁Pass	-3128
▁cake	-3129
olored	-3130
▁Haare	-3131
▁Sechs	-3132
gebäude	-3133
▁Leiter	-3134
▁gelbem	-3135
▁grüner	-3136
▁silver	-3137
▁werfen	-3138
▁sliding	-3139
▁Hochzeit	-3140
▁Kostümen	-3141
▁platform	-3142
▁pointing	-3143
▁unbefest	-3144
▁Skifahrer	-3145
▁gathering	-3146
▁surfboard	-3147
▁überquert	-3148
▁Polizisten	-3149
▁vegetables	-3150
me	-3151
agt	-3152
cts	-3153
urg	-3154
cers	-3155
hand	-3156
stän	-3157
▁Kaj	-3158
▁Tre	-3159
▁cla	-3160
▁kay	-3161
▁pot	-3162
ister	-3163
▁Kapu	-3164
▁Rand	-3165
▁barf	-3166
▁disc	-3167
▁feet	-3168
▁legt	-3169
eichen	-3170
▁obser	-3171
▁suits	-3172
▁Statue	-3173
▁cement	-3174
▁facing	-3175
▁sports	-3176
▁counter	-3177
▁nacktem	-3178
▁streets	-3179
▁individu	-3180
▁Sweatshirt	-3181
▁versammeln	-3182
▁städtischen	-3183
▁Lebensmittel	-3184
öh	-3185
ped	-3186
äum	-3187
gner	-3188
test	-3189
yard	-3190
▁Six	-3191
▁mem	-3192
▁mon	-3193
arden	-3194
axoph	-3195
▁neck	-3196
▁rais	-3197
▁Rodeo	-3198
▁biker	-3199
▁gelbe	-3200
eyboard	-3201
▁Gesich	-3202
▁bedeck	-3203
▁before	-3204
▁gemein	-3205
▁nehmen	-3206
▁violin	-3207
▁waters	-3208
▁helmets	-3209
▁wedding	-3210
▁Maschine	-3211
▁speaking	-3212
ausrüstung	-3213
▁competing	-3214
bes	-3215
kap	-3216
geht	-3217
roll	-3218
tent	-3219
unch	-3220
▁Bei	-3221
▁Lap	-3222
▁Rot	-3223
▁jün	-3224
schaf	-3225
▁Kids	-3226
▁Schm	-3227
▁Tank	-3228
▁garb	-3229
▁gets	-3230
▁huge	-3231
▁incl	-3232
▁lapt	-3233
▁scul	-3234
▁Leine	-3235
▁Vater	-3236
▁kommt	-3237
▁produ	-3238
▁sweep	-3239
▁teams	-3240
▁blaues	-3241
▁coming	-3242
▁durchs	-3243
▁Brunnen	-3244
▁Rutsche	-3245
▁amerikan	-3246
▁business	-3247
▁Geschäfts	-3248
▁classroom	-3249
▁Mannschaft	-3250
oe	-3251
pet	-3252
rag	-3253
▁we	-3254
ders	-3255
führ	-3256
ippe	-3257
urse	-3258
▁Dre	-3259
▁Kat	-3260
▁Mil	-3261
▁din	-3262
▁hol	-3263
▁lap	-3264
▁loc	-3265
▁mir	-3266
boden	-3267
icher	-3268
uppen	-3269
▁Balk	-3270
iefeln	-3271
ration	-3272
▁Waren	-3273
▁clown	-3274
▁entsp	-3275
▁guckt	-3276
▁laugh	-3277
▁purse	-3278
▁sings	-3279
▁tries	-3280
otorrad	-3281
▁Bikini	-3282
▁Parade	-3283
▁Vorder	-3284
▁Westen	-3285
▁balanc	-3286
▁climbs	-3287
▁stellt	-3288
▁Kopfhör	-3289
▁blonder	-3290
▁surfing	-3291
▁Marathon	-3292
▁genießen	-3293
▁schreibt	-3294
▁students	-3295
▁unbefestig	-3296
▁Regenschirm	-3297
▁traditional	-3298
yl	-3299
ön	-3300
avy	-3301
ibb	-3302
ror	-3303
tes	-3304
urs	-3305
vol	-3306
▁So	-3307
bung	-3308
köpf	-3309
sten	-3310
ugby	-3311
▁Anz	-3312
▁Red	-3313
▁eng	-3314
ischt	-3315
ooter	-3316
öcken	-3317
▁Müll	-3318
▁Wohn	-3319
▁circ	-3320
▁foot	-3321
▁talk	-3322
▁weib	-3323
▁Diese	-3324
▁Eimer	-3325
▁Laden	-3326
▁bride	-3327
▁shoot	-3328
▁Tänzer	-3329
▁Wellen	-3330
▁animal	-3331
▁crouch	-3332
▁leeren	-3333
farbenem	-3334
▁Spiegel	-3335
▁Stühlen	-3336
▁chasing	-3337
▁kissing	-3338
▁Soldaten	-3339
▁military	-3340
▁snowboard	-3341
▁Schutzhelm	-3342
▁asiatischen	-3343
del	-3344
ows	-3345
ule	-3346
ärm	-3347
aske	-3348
case	-3349
eige	-3350
ideo	-3351
itär	-3352
ower	-3353
pped	-3354
▁Pfl	-3355
▁end	-3356
▁log	-3357
icket	-3358
ocken	-3359
öpfen	-3360
▁Ende	-3361
▁York	-3362
▁card	-3363
▁clos	-3364
▁deco	-3365
▁exam	-3366
▁gepf	-3367
▁gras	-3368
▁link	-3369
▁ohne	-3370
▁pack	-3371
▁same	-3372
▁sled	-3373
mitten	-3374
▁Baust	-3375
▁wobei	-3376
▁Seifen	-3377
▁chines	-3378
▁screen	-3379
▁Kletter	-3380
▁Schüler	-3381
▁streckt	-3382
▁walkway	-3383
▁Geländem	-3384
▁Umgebung	-3385
▁electric	-3386
▁fighting	-3387
▁stroller	-3388
▁Mikrophon	-3389
▁gekleideten	-3390
▁gestreiftem	-3391
▁Motorradfahrer	-3392
ary	-3393
kar	-3394
mus	-3395
red	-3396
▁Al	-3397
▁Sä	-3398
annt	-3399
foot	-3400
icip	-3401
ickt	-3402
obil	-3403
ssel	-3404
▁Bes	-3405
▁Fah	-3406
▁bek	-3407
oline	-3408
stell	-3409
ustom	-3410
▁Kaff	-3411
▁Kraw	-3412
▁Weiß	-3413
▁chef	-3414
▁oper	-3415
reifen	-3416
▁skier	-3417
▁waits	-3418
▁allein	-3419
▁artist	-3420
▁kaufen	-3421
▁silber	-3422
▁sunset	-3423
maschine	-3424
▁Schuhen	-3425
▁Wassers	-3426
▁afrikan	-3427
▁females	-3428
▁writing	-3429
▁beleucht	-3430
▁inmitten	-3431
▁kneeling	-3432
▁riesigen	-3433
▁schwingt	-3434
▁shoulder	-3435
▁sprechen	-3436
▁Badeanzug	-3437
▁Erwachsenen	-3438
▁Erwachsener	-3439
za	-3440
amb	-3441
ged	-3442
nah	-3443
oud	-3444
umm	-3445
door	-3446
egel	-3447
geln	-3448
ides	-3449
rena	-3450
teln	-3451
▁Fle	-3452
▁Ohr	-3453
▁Wer	-3454
▁cat	-3455
▁fir	-3456
▁gun	-3457
▁wra	-3458
gesch	-3459
halle	-3460
▁Sohn	-3461
▁Werk	-3462
▁cand	-3463
▁einz	-3464
▁rein	-3465
▁shad	-3466
▁tire	-3467
ending	-3468
ichtet	-3469
istmas	-3470
▁Kajak	-3471
▁urban	-3472
richter	-3473
▁Gegend	-3474
▁grauem	-3475
▁mirror	-3476
▁runner	-3477
▁waving	-3478
▁anderes	-3479
▁älteren	-3480
▁barefoot	-3481
▁Parkplatz	-3482
▁Uniformen	-3483
▁gegenüber	-3484
▁gemeinsam	-3485
▁attempting	-3486
▁Handschuhen	-3487
lü	-3488
▁4	-3489
bra	-3490
▁yo	-3491
alls	-3492
erra	-3493
oons	-3494
schn	-3495
verk	-3496
ätow	-3497
▁Ess	-3498
▁gut	-3499
▁sel	-3500
▁sup	-3501
gehen	-3502
ktion	-3503
▁Arme	-3504
▁Over	-3505
▁hört	-3506
▁prof	-3507
▁seen	-3508
▁stra	-3509
▁tack	-3510
▁Party	-3511
▁Stand	-3512
▁enjoy	-3513
▁lesen	-3514
▁makes	-3515
▁place	-3516
▁sculp	-3517
▁signs	-3518
▁touch	-3519
▁trans	-3520
▁umarm	-3521
▁Bergen	-3522
▁gelbes	-3523
▁starrt	-3524
▁Konzert	-3525
▁Treppen	-3526
▁offenen	-3527
▁outfits	-3528
bewachsen	-3529
▁Gebäuden	-3530
▁Schreibt	-3531
▁marathon	-3532
▁Kinderwagen	-3533
▁Straßenecke	-3534
▁Straßenrand	-3535
“.	-3536
alf	-3537
ars	-3538
ced	-3539
ics	-3540
uro	-3541
▁Kl	-3542
iant	-3543
iers	-3544
orch	-3545
renn	-3546
ring	-3547
▁Kir	-3548
▁gre	-3549
laden	-3550
▁Bull	-3551
▁Work	-3552
▁bath	-3553
▁cele	-3554
▁jagt	-3555
▁says	-3556
grünen	-3557
vertis	-3558
▁Badeh	-3559
▁Schoß	-3560
▁Wasch	-3561
▁chain	-3562
▁cloud	-3563
▁course	-3564
▁irgend	-3565
▁multic	-3566
▁tables	-3567
▁umarmt	-3568
▁Bereich	-3569
▁blowing	-3570
▁bubbles	-3571
▁gymnast	-3572
▁officer	-3573
▁project	-3574
▁scooter	-3575
▁advertis	-3576
▁lächelnd	-3577
▁particip	-3578
▁schlagen	-3579
▁Backstein	-3580
▁Baustelle	-3581
▁verkleidet	-3582
▁overlooking	-3583
▁pinkfarbenen	-3584
▁Geländemotorrad	-3585
mä	-3586
äm	-3587
üß	-3588
bst	-3589
ily	-3590
ton	-3591
vor	-3592
▁BM	-3593
▁Wh	-3594
▁wä	-3595
bike	-3596
emon	-3597
lete	-3598
line	-3599
olle	-3600
ptur	-3601
▁Tur	-3602
▁ban	-3603
▁mag	-3604
ecken	-3605
ierte	-3606
irmen	-3607
▁Fern	-3608
▁Lauf	-3609
▁base	-3610
▁five	-3611
▁foll	-3612
▁hole	-3613
▁meat	-3614
▁rech	-3615
arbeit	-3616
olding	-3617
ulptur	-3618
▁Pause	-3619
▁grüne	-3620
▁happy	-3621
▁leans	-3622
▁refle	-3623
▁Chines	-3624
▁Jacken	-3625
▁Kuchen	-3626
▁collar	-3627
▁father	-3628
▁fixing	-3629
▁garden	-3630
▁lights	-3631
▁skating	-3632
▁Krawatte	-3633
▁balloons	-3634
▁klettern	-3635
▁schwarzes	-3636
▁grasbewachsen	-3637
▁dunkelhäutiger	-3638
epp	-3639
eth	-3640
ipe	-3641
umb	-3642
eman	-3643
farb	-3644
iste	-3645
lauf	-3646
lymp	-3647
ritt	-3648
tsch	-3649
▁Lab	-3650
▁bra	-3651
▁mat	-3652
▁ped	-3653
front	-3654
issen	-3655
räder	-3656
▁Netz	-3657
▁Tier	-3658
▁life	-3659
▁pier	-3660
▁tool	-3661
indern	-3662
unette	-3663
üllten	-3664
▁alone	-3665
▁faces	-3666
telefon	-3667
▁Sänger	-3668
▁gegner	-3669
▁singen	-3670
▁unters	-3671
▁discuss	-3672
▁helping	-3673
▁leather	-3674
▁microsc	-3675
▁Schatten	-3676
▁brightly	-3677
▁musicians	-3678
▁repariert	-3679
▁umbrellas	-3680
▁foreground	-3681
▁gepflaster	-3682
▁Vordergrund	-3683
▁Construction	-3684
▁Fußballspiel	-3685
▁Jugendlicher	-3686
▁Schreibtisch	-3687
▁Skateboarder	-3688
▁orangefarbener	-3689
cy	-3690
▁Ä	-3691
bor	-3692
que	-3693
upp	-3694
▁Es	-3695
hang	-3696
ieds	-3697
korb	-3698
oten	-3699
otoc	-3700
ural	-3701
▁blo	-3702
▁cas	-3703
▁nat	-3704
asser	-3705
chair	-3706
▁Fell	-3707
▁Last	-3708
▁ganz	-3709
▁golf	-3710
▁good	-3711
▁legs	-3712
▁made	-3713
▁rack	-3714
▁site	-3715
▁stad	-3716
▁well	-3717
itarre	-3718
▁Clown	-3719
▁Gesch	-3720
▁Leder	-3721
▁giant	-3722
▁glück	-3723
▁plate	-3724
▁putzt	-3725
▁skate	-3726
strecke	-3727
▁Schnau	-3728
▁Sicher	-3729
▁asleep	-3730
▁kurzer	-3731
▁schauk	-3732
otocross	-3733
▁Taschen	-3734
▁hellhäut	-3735
▁Schlitten	-3736
▁sculpture	-3737
▁headphones	-3738
▁gekleidetes	-3739
▁verschiedene	-3740
▁Tennisspieler	-3741
▁gegeneinander	-3742
zä	-3743
afé	-3744
dog	-3745
eng	-3746
key	-3747
öhe	-3748
▁Im	-3749
anne	-3750
ched	-3751
deon	-3752
iter	-3753
vice	-3754
▁Kla	-3755
▁fäl	-3756
armen	-3757
mauer	-3758
orfen	-3759
ängen	-3760
▁Blau	-3761
▁alle	-3762
▁eins	-3763
▁fast	-3764
blasen	-3765
lossen	-3766
westen	-3767
▁Mobil	-3768
▁trash	-3769
▁wears	-3770
führung	-3771
strumen	-3772
▁Baumst	-3773
▁Kunden	-3774
▁custom	-3775
▁desert	-3776
▁diving	-3777
▁grocer	-3778
▁office	-3779
▁repair	-3780
▁sticks	-3781
▁swings	-3782
▁Mikrosk	-3783
▁bedeckt	-3784
▁doorway	-3785
▁passing	-3786
▁sandals	-3787
▁stadium	-3788
▁washing	-3789
▁Künstler	-3790
▁Sandalen	-3791
▁jemandem	-3792
strumenten	-3793
▁angezogen	-3794
▁verkaufen	-3795
iedsrichter	-3796
▁Fahrrädern	-3797
▁balanciert	-3798
▁asiatisches	-3799
▁Fahrradfahrer	-3800
th	-3801
roh	-3802
▁pa	-3803
aken	-3804
aler	-3805
ffic	-3806
hält	-3807
lesc	-3808
raum	-3809
unks	-3810
▁Kon	-3811
▁Kop	-3812
▁fei	-3813
▁hei	-3814
▁way	-3815
führt	-3816
weste	-3817
▁Blät	-3818
▁Büro	-3819
▁Erde	-3820
▁Koch	-3821
▁post	-3822
▁roll	-3823
▁toys	-3824
▁verf	-3825
gebiet	-3826
▁Akkor	-3827
▁Angel	-3828
▁beugt	-3829
▁canoe	-3830
▁heads	-3831
▁setzt	-3832
▁stuff	-3833
▁winkt	-3834
cordion	-3835
▁fallen	-3836
▁ziehen	-3837
▁Arbeits	-3838
▁Gelände	-3839
▁Pferden	-3840
▁Verkehr	-3841
▁falling	-3842
▁musical	-3843
▁Flugzeug	-3844
▁Schlauch	-3845
▁Stiefeln	-3846
▁officers	-3847
▁accordion	-3848
▁Mobiltelefon	-3849
▁multicolored	-3850
▁photographer	-3851
▁Einkaufswagen	-3852
▁5	-3853
▁Ü	-3854
ube	-3855
usp	-3856
ähn	-3857
▁Fr	-3858
▁Fü	-3859
atur	-3860
ends	-3861
erse	-3862
ffen	-3863
igem	-3864
ilfe	-3865
lung	-3866
road	-3867
rock	-3868
wing	-3869
▁dam	-3870
▁mix	-3871
▁rec	-3872
▁tag	-3873
▁vis	-3874
ached	-3875
dress	-3876
eiden	-3877
▁Golf	-3878
▁hall	-3879
▁jugg	-3880
▁wund	-3881
gelben	-3882
ughter	-3883
▁booth	-3884
▁dirty	-3885
▁dreht	-3886
▁fällt	-3887
▁leash	-3888
▁video	-3889
▁besteh	-3890
▁church	-3891
▁grünes	-3892
▁laptop	-3893
▁plants	-3894
▁skiing	-3895
▁throws	-3896
▁Kapuzen	-3897
▁drawing	-3898
▁picking	-3899
▁shallow	-3900
▁teenage	-3901
▁Felswand	-3902
▁Halsband	-3903
▁Schulter	-3904
▁reaching	-3905
▁Akkordeon	-3906
▁Surfbrett	-3907
▁performance	-3908
▁Klassenzimmer	-3909
▁Schiedsrichter	-3910
▁orangefarbenem	-3911
▁Footballspieler	-3912
St	-3913
aß	-3914
kl	-3915
▁(	-3916
atz	-3917
enk	-3918
err	-3919
pft	-3920
sse	-3921
uzz	-3922
▁je	-3923
alon	-3924
igur	-3925
inis	-3926
park	-3927
uder	-3928
ugel	-3929
ught	-3930
unkt	-3931
wegs	-3932
▁BMX	-3933
▁Chr	-3934
▁Dra	-3935
▁ass	-3936
▁cow	-3937
▁mom	-3938
eilen	-3939
inder	-3940
roten	-3941
siert	-3942
äsche	-3943
▁Base	-3944
▁Fall	-3945
▁Höhe	-3946
▁feat	-3947
▁fünf	-3948
▁pond	-3949
orting	-3950
▁below	-3951
▁clean	-3952
▁davor	-3953
▁laund	-3954
▁males	-3955
▁prote	-3956
▁straw	-3957
anzügen	-3958
▁Zimmer	-3959
▁dessen	-3960
▁hiking	-3961
▁reiten	-3962
stellung	-3963
▁Chinese	-3964
▁Fleisch	-3965
▁Schlamm	-3966
▁belebte	-3967
▁digging	-3968
▁schmutz	-3969
▁traffic	-3970
▁Badehose	-3971
▁Schläger	-3972
▁Sicherhe	-3973
▁lächelnde	-3974
▁profession	-3975
▁hellbrauner	-3976
▁unbefestigten	-3977
gn	-3978
adl	-3979
irn	-3980
änd	-3981
ares	-3982
enkt	-3983
lers	-3984
nung	-3985
team	-3986
zaun	-3987
ückt	-3988
▁Ele	-3989
▁Gle	-3990
▁Str	-3991
▁nap	-3992
▁pul	-3993
▁van	-3994
aster	-3995
nahme	-3996
schuh	-3997
uddle	-3998
useum	-3999
▁Kanu	-4000
▁Loch	-4001
▁Pick	-4002
▁afro	-4003
▁atop	-4004
▁deck	-4005
▁susp	-4006
bereit	-4007
▁Japan	-4008
▁cloth	-4009
▁gives	-4010
▁inspe	-4011
▁küsst	-4012
▁redet	-4013
▁teach	-4014
▁Schuhe	-4015
▁Spring	-4016
▁passes	-4017
▁seines	-4018
▁tunnel	-4019
▁upside	-4020
▁zeigen	-4021
fahrzeug	-4022
schläger	-4023
▁Militär	-4024
▁braunem	-4025
▁catches	-4026
▁hugging	-4027
▁present	-4028
▁Mountain	-4029
▁aussieht	-4030
▁catching	-4031
▁relaxing	-4032
▁Mikroskop	-4033
▁direction	-4034
▁erwachsen	-4035
▁leuchtend	-4036
▁weibliche	-4037
▁Oberteilen	-4038
▁microscope	-4039
▁Seifenblasen	-4040
▁Q	-4041
elf	-4042
nis	-4043
prü	-4044
▁Gu	-4045
blas	-4046
eier	-4047
gere	-4048
gern	-4049
iern	-4050
ockt	-4051
oren	-4052
part	-4053
slee	-4054
stad	-4055
▁Dog	-4056
▁act	-4057
▁lab	-4058
▁sec	-4059
alter	-4060
druck	-4061
liert	-4062
light	-4063
ragen	-4064
uding	-4065
▁Ecke	-4066
▁Spaß	-4067
▁Teil	-4068
▁Toch	-4069
▁Wind	-4070
▁even	-4071
▁komp	-4072
▁lift	-4073
▁warm	-4074
▁wild	-4075
rillen	-4076
▁Black	-4077
▁Krank	-4078
▁Kreis	-4079
▁balls	-4080
▁einge	-4081
▁shows	-4082
▁stunt	-4083
adlocks	-4084
brauner	-4085
brunnen	-4086
▁Laptop	-4087
▁bemalt	-4088
▁sleeps	-4089
▁Tischen	-4090
▁dancers	-4091
▁leaping	-4092
▁Pflanzen	-4093
▁Schlange	-4094
▁Schnauze	-4095
▁brunette	-4096
▁sweeping	-4097
▁Christmas	-4098
▁Spielfeld	-4099
▁bekleidet	-4100
▁verschiedenen	-4101
bat	-4102
ble	-4103
kop	-4104
pro	-4105
tor	-4106
▁US	-4107
▁Wü	-4108
afel	-4109
hnen	-4110
ones	-4111
ssch	-4112
ures	-4113
ußen	-4114
wich	-4115
▁Hot	-4116
▁Lad	-4117
▁sto	-4118
▁tur	-4119
antel	-4120
enter	-4121
fährt	-4122
osten	-4123
weiße	-4124
▁Hock	-4125
▁Mitt	-4126
▁Nach	-4127
▁Stud	-4128
▁Tepp	-4129
▁cafe	-4130
▁fing	-4131
▁hose	-4132
▁move	-4133
▁pill	-4134
Shirts	-4135
leucht	-4136
▁Bäume	-4137
▁Kopft	-4138
▁Stirn	-4139
▁Teich	-4140
▁Tramp	-4141
▁coats	-4142
▁flies	-4143
▁round	-4144
▁scaff	-4145
▁stret	-4146
▁teeth	-4147
bereich	-4148
▁Gerüst	-4149
▁Pferde	-4150
▁geschm	-4151
▁hammer	-4152
▁hoodie	-4153
▁küssen	-4154
▁singer	-4155
▁telesc	-4156
▁trunks	-4157
indernis	-4158
köpfiger	-4159
▁Stadion	-4160
▁Tochter	-4161
▁protest	-4162
▁resting	-4163
▁schönen	-4164
▁Gesichts	-4165
▁daughter	-4166
▁swimsuit	-4167
instrument	-4168
▁Lastwagen	-4169
▁Schultern	-4170
▁ausgestre	-4171
▁wundersch	-4172
▁conversing	-4173
▁Rennstrecke	-4174
▁farbenfrohen	-4175
▁lilafarbenen	-4176
▁grasbewachsenen	-4177
ko	-4178
kw	-4179
ads	-4180
bad	-4181
hou	-4182
ieg	-4183
nic	-4184
rem	-4185
ual	-4186
wär	-4187
anda	-4188
lett	-4189
oped	-4190
ster	-4191
zene	-4192
ören	-4193
▁Ban	-4194
▁Kai	-4195
▁Nah	-4196
▁bis	-4197
▁ble	-4198
▁eat	-4199
▁how	-4200
▁ste	-4201
feren	-4202
neath	-4203
owing	-4204
wards	-4205
▁Café	-4206
▁Hula	-4207
▁balc	-4208
▁cold	-4209
▁fair	-4210
▁fram	-4211
▁hear	-4212
▁held	-4213
▁plan	-4214
▁town	-4215
igkeit	-4216
▁Schuh	-4217
▁Tasse	-4218
▁appro	-4219
▁guard	-4220
▁kocht	-4221
▁mural	-4222
▁stack	-4223
▁tramp	-4224
▁Haufen	-4225
▁Hunden	-4226
▁Kirche	-4227
▁athlet	-4228
▁frisch	-4229
▁karate	-4230
▁points	-4231
▁stream	-4232
▁Flasche	-4233
▁Tanktop	-4234
▁Verkauf	-4235
▁contain	-4236
▁jogging	-4237
▁suspend	-4238
▁Luftball	-4239
▁Schaufel	-4240
▁splashing	-4241
▁telescope	-4242
▁wrestling	-4243
▁männlicher	-4244
▁underneath	-4245
▁Sicherheits	-4246
▁gepflasterten	-4247
".	-4248
cas	-4249
hat	-4250
ilt	-4251
urr	-4252
üte	-4253
▁Zä	-4254
alto	-4255
hose	-4256
icks	-4257
iner	-4258
kten	-4259
work	-4260
üten	-4261
▁Lie	-4262
▁Old	-4263
▁brü	-4264
▁exc	-4265
▁pet	-4266
▁tub	-4267
bewer	-4268
elten	-4269
etten	-4270
kappe	-4271
linie	-4272
▁Sonn	-4273
▁cane	-4274
▁fels	-4275
▁hula	-4276
▁jong	-4277
▁kahl	-4278
▁kind	-4279
▁must	-4280
▁shoe	-4281
▁tour	-4282
▁wein	-4283
genden	-4284
selves	-4285
▁Innen	-4286
▁Kappe	-4287
▁Küste	-4288
▁Olymp	-4289
▁Small	-4290
▁Stoff	-4291
▁books	-4292
▁colle	-4293
▁curly	-4294
▁magaz	-4295
▁spray	-4296
▁Farben	-4297
▁Meeres	-4298
▁Objekt	-4299
▁Reifen	-4300
▁hellen	-4301
▁marsch	-4302
▁moving	-4303
▁schütt	-4304
▁string	-4305
▁underw	-4306
gestellt	-4307
igkeiten	-4308
schaften	-4309
▁Freunde	-4310
▁without	-4311
▁Freunden	-4312
▁Parkbank	-4313
▁Hindernis	-4314
▁asiatisch	-4315
▁including	-4316
▁schaukelt	-4317
▁schwimmen	-4318
▁shoulders	-4319
▁unterwegs	-4320
▁aussehende	-4321
▁themselves	-4322
▁geschlossen	-4323
▁afroamerikan	-4324
▁gegnerischen	-4325
ka	-4326
zu	-4327
jam	-4328
oes	-4329
opp	-4330
pit	-4331
yle	-4332
▁Qu	-4333
▁sa	-4334
▁ty	-4335
ails	-4336
back	-4337
cker	-4338
halt	-4339
iage	-4340
itor	-4341
mert	-4342
▁Flü	-4343
▁Som	-4344
▁exp	-4345
▁fan	-4346
▁gie	-4347
▁ruh	-4348
▁ärm	-4349
eding	-4350
fully	-4351
ivers	-4352
nival	-4353
plane	-4354
stadt	-4355
▁Eish	-4356
▁Hang	-4357
▁Jahr	-4358
▁Mahl	-4359
▁Ziel	-4360
▁deep	-4361
▁tong	-4362
▁vert	-4363
▁wets	-4364
▁wire	-4365
▁Blatt	-4366
▁Gasse	-4367
▁Geige	-4368
▁Katze	-4369
▁Stroh	-4370
▁damit	-4371
▁hiker	-4372
▁kayak	-4373
▁links	-4374
▁taken	-4375
ammlung	-4376
ehälter	-4377
▁Dieser	-4378
▁Helmen	-4379
▁Sachen	-4380
▁Schlaf	-4381
▁Skater	-4382
▁Steine	-4383
▁crying	-4384
▁dinner	-4385
▁grauer	-4386
▁makeup	-4387
▁pulled	-4388
▁racket	-4389
▁tricks	-4390
▁wooded	-4391
▁ärmell	-4392
haariges	-4393
▁Teppich	-4394
▁Workers	-4395
▁bedient	-4396
▁cyclist	-4397
▁decorat	-4398
▁dunkler	-4399
▁produce	-4400
▁umarmen	-4401
▁wetsuit	-4402
schwarzer	-4403
▁Kapuzenp	-4404
▁carnival	-4405
▁matching	-4406
▁opposing	-4407
▁Gegenstän	-4408
▁Touristen	-4409
▁Trampolin	-4410
▁bicyclist	-4411
▁crosswalk	-4412
▁entspannt	-4413
▁violetten	-4414
▁trampoline	-4415
▁individuals	-4416
▁Schutzhelmen	-4417
▁beleuchteten	-4418
▁Schwimmbrille	-4419
haw	-4420
örm	-4421
arbe	-4422
dert	-4423
ehrt	-4424
emen	-4425
last	-4426
ular	-4427
ulen	-4428
▁ans	-4429
▁hik	-4430
▁hur	-4431
▁nur	-4432
▁wur	-4433
agers	-4434
indet	-4435
ondon	-4436
▁Eing	-4437
▁Schä	-4438
▁Vide	-4439
▁brus	-4440
▁help	-4441
▁holt	-4442
▁knee	-4443
▁lone	-4444
▁nose	-4445
ameras	-4446
bewerb	-4447
entrum	-4448
erskat	-4449
ierter	-4450
ändern	-4451
▁Berge	-4452
▁Kreuz	-4453
▁Maske	-4454
▁fight	-4455
▁hinab	-4456
▁hüpft	-4457
▁überf	-4458
berteil	-4459
▁Balkon	-4460
▁Kaffee	-4461
▁Skiern	-4462
▁Turner	-4463
▁befest	-4464
▁center	-4465
▁closed	-4466
▁dances	-4467
▁infant	-4468
▁langem	-4469
▁picnic	-4470
▁sewing	-4471
▁steigt	-4472
▁stroll	-4473
▁wander	-4474
▁Feldweg	-4475
▁Flaggen	-4476
▁Overall	-4477
▁Strecke	-4478
▁gezogen	-4479
▁members	-4480
▁rolling	-4481
▁stuffed	-4482
▁surface	-4483
▁Schüssel	-4484
▁Straßenk	-4485
▁attempts	-4486
▁Kopfhörer	-4487
▁cheerlead	-4488
▁jongliert	-4489
▁performer	-4490
▁verwendet	-4491
▁Landschaft	-4492
▁wheelchair	-4493
veranstaltung	-4494
ai	-4495
axi	-4496
eiß	-4497
ete	-4498
fte	-4499
gem	-4500
irr	-4501
reg	-4502
une	-4503
äch	-4504
äck	-4505
äst	-4506
üne	-4507
▁De	-4508
alat	-4509
auto	-4510
eter	-4511
helm	-4512
oben	-4513
self	-4514
äten	-4515
▁Män	-4516
▁Per	-4517
▁esc	-4518
▁led	-4519
▁reg	-4520
chenk	-4521
ckten	-4522
estri	-4523
gerät	-4524
icken	-4525
icker	-4526
ident	-4527
lagen	-4528
ustic	-4529
zeigt	-4530
▁Rett	-4531
▁goes	-4532
▁hoop	-4533
▁lays	-4534
▁ring	-4535
blades	-4536
omaten	-4537
▁Abend	-4538
▁Couch	-4539
▁Pickn	-4540
▁These	-4541
▁Umzug	-4542
▁besch	-4543
▁bever	-4544
▁kauft	-4545
▁loung	-4546
▁print	-4547
▁slope	-4548
▁third	-4549
eichnet	-4550
reichen	-4551
▁Bilder	-4552
▁Bullen	-4553
▁Fahnen	-4554
▁Karate	-4555
▁Klippe	-4556
▁Seiten	-4557
▁blouse	-4558
▁bottom	-4559
▁button	-4560
▁circle	-4561
▁formal	-4562
▁pushes	-4563
▁rechts	-4564
▁saxoph	-4565
▁square	-4566
estrians	-4567
richtung	-4568
▁balcony	-4569
▁himself	-4570
▁opening	-4571
▁schießt	-4572
▁Softball	-4573
▁geschäft	-4574
▁softball	-4575
▁Eishockey	-4576
▁Fallschirm	-4577
▁lächelnder	-4578
▁Springbrunnen	-4579
“-	-4580
bec	-4581
box	-4582
ech	-4583
ica	-4584
ola	-4585
ora	-4586
▁20	-4587
▁Am	-4588
▁ca	-4589
Hoop	-4590
eile	-4591
glie	-4592
iano	-4593
inen	-4594
itze	-4595
oney	-4596
umpf	-4597
zäun	-4598
ürde	-4599
▁Kur	-4600
▁Lkw	-4601
▁Not	-4602
▁bin	-4603
▁dry	-4604
▁lif	-4605
▁pan	-4606
▁rub	-4607
▁tau	-4608
arage	-4609
baren	-4610
inned	-4611
weise	-4612
▁Blue	-4613
▁Grim	-4614
▁Wurf	-4615
▁bent	-4616
▁cons	-4617
▁farm	-4618
▁mess	-4619
▁most	-4620
▁puts	-4621
▁ruht	-4622
▁skis	-4623
▁tile	-4624
inning	-4625
reiben	-4626
öffnet	-4627
▁Außen	-4628
▁Wüste	-4629
▁bläst	-4630
▁boxes	-4631
▁heben	-4632
▁lunch	-4633
▁näher	-4634
▁pulls	-4635
▁sandy	-4636
▁steep	-4637
▁Asiate	-4638
▁Essens	-4639
▁London	-4640
▁Teller	-4641
▁barfuß	-4642
▁chases	-4643
▁device	-4644
▁gesäum	-4645
▁grillt	-4646
▁indoor	-4647
▁inflat	-4648
▁speaks	-4649
▁sprink	-4650
▁Anzügen	-4651
▁athlete	-4652
▁bekommt	-4653
▁berührt	-4654
▁wandert	-4655
▁Kopftuch	-4656
▁geöffnet	-4657
▁verfolgt	-4658
▁Cowboyhut	-4659
▁schüttelt	-4660
▁staircase	-4661
▁waterfall	-4662
▁hellblauen	-4663
▁reparieren	-4664
▁wunderschö	-4665
▁aussehender	-4666
▁Instrumenten	-4667
▁advertisement	-4668
▁dunkelhäutige	-4669
▁fotografieren	-4670
ls	-4671
oy	-4672
rie	-4673
umn	-4674
anta	-4675
apel	-4676
cted	-4677
dach	-4678
dium	-4679
ered	-4680
ible	-4681
▁Box	-4682
▁Erd	-4683
▁Guy	-4684
▁Wel	-4685
▁fig	-4686
▁gek	-4687
▁see	-4688
▁zer	-4689
cover	-4690
fahrt	-4691
gegen	-4692
itter	-4693
place	-4694
pping	-4695
scape	-4696
ützen	-4697
▁Nase	-4698
▁nice	-4699
▁pupp	-4700
▁robe	-4701
▁vorn	-4702
ashion	-4703
atting	-4704
▁fresh	-4705
▁hockt	-4706
▁paved	-4707
▁stein	-4708
▁swims	-4709
▁Beinen	-4710
▁Bücher	-4711
▁Reiter	-4712
▁drives	-4713
▁enjoys	-4714
▁hängen	-4715
▁podium	-4716
▁schauf	-4717
aufnahme	-4718
▁Projekt	-4719
▁Veranda	-4720
▁grocery	-4721
▁reinigt	-4722
▁shaking	-4723
▁vorüber	-4724
verkäufer	-4725
▁Mahlzeit	-4726
▁Sportler	-4727
▁approach	-4728
▁covering	-4729
▁festival	-4730
▁keyboard	-4731
▁overalls	-4732
▁Einkaufst	-4733
▁Wettkampf	-4734
▁Handtasche	-4735
▁Instrumente	-4736
▁überfüllten	-4737
▁Schaufenster	-4738
▁geschlossenen	-4739
▁Personengruppe	-4740
bs	-4741
gan	-4742
kes	-4743
vis	-4744
äus	-4745
▁AT	-4746
▁eg	-4747
aker	-4748
alle	-4749
baum	-4750
ited	-4751
itte	-4752
ktor	-4753
reit	-4754
änke	-4755
▁Beg	-4756
▁Gep	-4757
▁Trä	-4758
▁amü	-4759
▁hüb	-4760
▁jub	-4761
▁rem	-4762
annen	-4763
apers	-4764
arter	-4765
asten	-4766
euert	-4767
hügel	-4768
ienen	-4769
licht	-4770
offer	-4771
rauen	-4772
zeuge	-4773
▁Bach	-4774
▁Euro	-4775
▁Fest	-4776
▁Groß	-4777
▁Here	-4778
▁auch	-4779
▁bunt	-4780
▁camo	-4781
▁cook	-4782
▁curb	-4783
▁farb	-4784
▁film	-4785
▁gate	-4786
▁jean	-4787
▁lock	-4788
▁port	-4789
▁slee	-4790
▁tele	-4791
▁weld	-4792
läufer	-4793
räsent	-4794
▁Older	-4795
▁Rugby	-4796
▁Salto	-4797
▁Schle	-4798
▁Zähne	-4799
▁bauen	-4800
▁birds	-4801
▁chalk	-4802
▁heavy	-4803
▁khaki	-4804
▁kicks	-4805
▁mound	-4806
▁porch	-4807
▁robes	-4808
▁sheet	-4809
▁sport	-4810
▁stark	-4811
▁stool	-4812
covered	-4813
farbene	-4814
flasche	-4815
zentrum	-4816
▁Gebiet	-4817
▁Hauses	-4818
▁appear	-4819
▁dancer	-4820
▁diesem	-4821
▁driver	-4822
▁gucken	-4823
▁hikers	-4824
▁linken	-4825
▁puddle	-4826
▁tracks	-4827
▁öffnet	-4828
▁Asiaten	-4829
▁Asiatin	-4830
▁celebra	-4831
▁fingers	-4832
▁laundry	-4833
▁pitcher	-4834
▁pouring	-4835
▁shaving	-4836
▁windows	-4837
▁felsigen	-4838
▁marching	-4839
▁position	-4840
▁Hochzeits	-4841
▁customers	-4842
▁gentlemen	-4843
▁teenagers	-4844
▁transport	-4845
▁Wasserfall	-4846
▁bicyclists	-4847
▁pinkfarbenem	-4848
▁traditioneller	-4849
ds	-4850
chn	-4851
ina	-4852
ino	-4853
woh	-4854
▁Dr	-4855
▁Ex	-4856
▁Ge	-4857
▁Mo	-4858
▁tw	-4859
bart	-4860
glas	-4861
raft	-4862
ried	-4863
▁bro	-4864
▁def	-4865
▁don	-4866
▁lay	-4867
▁mer	-4868
▁pin	-4869
allen	-4870
chern	-4871
chter	-4872
wärts	-4873
▁Gold	-4874
▁Kerl	-4875
▁Laub	-4876
▁Neop	-4877
▁Ring	-4878
▁Sees	-4879
▁burg	-4880
▁cool	-4881
▁dust	-4882
▁fröh	-4883
▁kann	-4884
▁lies	-4885
▁lots	-4886
▁palm	-4887
▁sale	-4888
▁ship	-4889
▁tief	-4890
ichten	-4891
icycle	-4892
kostüm	-4893
leskop	-4894
muster	-4895
uggage	-4896
▁Terra	-4897
▁apart	-4898
▁arena	-4899
▁clear	-4900
▁grind	-4901
▁groom	-4902
▁hangs	-4903
▁ledge	-4904
▁local	-4905
▁orang	-4906
▁piano	-4907
▁poles	-4908
▁sheep	-4909
▁umher	-4910
brillen	-4911
tertain	-4912
udenten	-4913
▁Finger	-4914
▁Küchen	-4915
▁Orange	-4916
▁Sitzen	-4917
▁barbec	-4918
▁blocks	-4919
▁cloudy	-4920
▁colors	-4921
▁taucht	-4922
▁wäscht	-4923
bereitet	-4924
erstraße	-4925
▁Blätter	-4926
▁Fischer	-4927
▁Neopren	-4928
▁Steinen	-4929
▁aufblas	-4930
▁evening	-4931
▁foreign	-4932
▁rasiert	-4933
▁reaches	-4934
▁schnell	-4935
▁wrapped	-4936
schwarzen	-4937
struktion	-4938
▁Werkzeug	-4939
▁airplane	-4940
▁attached	-4941
▁backyard	-4942
▁checking	-4943
▁opposite	-4944
▁paddling	-4945
▁shooting	-4946
▁teenager	-4947
▁untersch	-4948
▁Fahrräder	-4949
▁schneiden	-4950
▁shoveling	-4951
▁Lederjacke	-4952
▁protective	-4953
▁untersucht	-4954
▁Winterkleidung	-4955
dd	-4956
ex	-4957
day	-4958
ory	-4959
rop	-4960
uen	-4961
▁Mc	-4962
▁Mö	-4963
▁Ur	-4964
chte	-4965
eilt	-4966
ider	-4967
irat	-4968
legt	-4969
mten	-4970
ners	-4971
ruck	-4972
räut	-4973
time	-4974
ulli	-4975
view	-4976
▁Kuh	-4977
▁Mod	-4978
▁adj	-4979
▁anz	-4980
▁bur	-4981
▁fab	-4982
▁ged	-4983
▁int	-4984
▁pen	-4985
▁pfl	-4986
▁sol	-4987
▁vac	-4988
▁übt	-4989
chest	-4990
erina	-4991
ippen	-4992
ively	-4993
onald	-4994
otted	-4995
seite	-4996
sicht	-4997
viert	-4998
ällen	-4999
änden	-5000
▁Afro	-5001
▁Mess	-5002
▁Prof	-5003
▁Sitz	-5004
▁Tarn	-5005
▁Tuch	-5006
▁Waff	-5007
▁amus	-5008
▁bran	-5009
▁desc	-5010
▁fris	-5011
▁pair	-5012
▁polo	-5013
▁poss	-5014
▁raft	-5015
▁samm	-5016
▁type	-5017
▁will	-5018
Fahrer	-5019
fallen	-5020
ickelt	-5021
mantel	-5022
pritzt	-5023
uflage	-5024
▁Kurve	-5025
▁Teams	-5026
▁Zunge	-5027
▁cones	-5028
▁denim	-5029
▁gießt	-5030
▁kickt	-5031
▁oppon	-5032
▁pajam	-5033
▁polic	-5034
▁sword	-5035
▁wurde	-5036
braunen	-5037
▁Jockey	-5038
▁Kleine	-5039
▁Sieben	-5040
▁design	-5041
▁einzel	-5042
▁fabric	-5043
▁fenced	-5044
▁gelegt	-5045
▁poster	-5046
▁tongue	-5047
▁vollen	-5048
arbeiten	-5049
▁Eingang	-5050
▁Fotogra	-5051
▁Gruppen	-5052
▁Kranken	-5053
▁Taucher	-5054
▁bandann	-5055
▁entfern	-5056
▁luggage	-5057
▁nachdem	-5058
▁streich	-5059
▁weitere	-5060
▁Getränke	-5061
▁Terrasse	-5062
▁Training	-5063
▁darunter	-5064
▁jumpsuit	-5065
▁pavement	-5066
▁sitzende	-5067
▁Baumstamm	-5068
▁Passanten	-5069
▁balancing	-5070
▁saxophone	-5071
▁camouflage	-5072
▁inflatable	-5073
▁Cheerleader	-5074
▁beieinander	-5075
▁hellbraunen	-5076
▁Fußgängerüber	-5077
▁Ö	-5078
cut	-5079
▁mö	-5080
ames	-5081
aped	-5082
bern	-5083
igam	-5084
izza	-5085
rill	-5086
rist	-5087
öcke	-5088
ütte	-5089
▁Pat	-5090
▁Pit	-5091
▁Pos	-5092
▁acc	-5093
▁arr	-5094
▁dra	-5095
▁eye	-5096
▁fur	-5097
▁höl	-5098
▁low	-5099
▁orn	-5100
▁res	-5101
▁wag	-5102
▁war	-5103
akers	-5104
flops	-5105
iment	-5106
nette	-5107
▁Bord	-5108
▁City	-5109
▁Wein	-5110
▁beam	-5111
▁eats	-5112
▁fert	-5113
▁konz	-5114
▁neon	-5115
▁seat	-5116
▁trop	-5117
▁unge	-5118
▁wine	-5119
▁üben	-5120
elling	-5121
iertem	-5122
nitten	-5123
▁Blond	-5124
▁Bräut	-5125
▁Lager	-5126
▁Licht	-5127
▁Santa	-5128
▁ausge	-5129
▁frame	-5130
▁image	-5131
▁recei	-5132
▁walls	-5133
estelle	-5134
fahrern	-5135
houette	-5136
▁Becher	-5137
▁Gepäck	-5138
▁Tunnel	-5139
▁Wäsche	-5140
▁barfüß	-5141
▁bringt	-5142
▁buying	-5143
▁flight	-5144
▁floral	-5145
▁goalie	-5146
▁headsc	-5147
▁helfen	-5148
▁hinaus	-5149
▁kommen	-5150
▁laughs	-5151
▁nassen	-5152
▁refere	-5153
▁schlaf	-5154
▁skirts	-5155
▁weiter	-5156
▁escalat	-5157
▁married	-5158
▁steigen	-5159
▁tractor	-5160
▁Geschenk	-5161
▁floating	-5162
▁geworfen	-5163
▁juggling	-5164
▁konzentr	-5165
▁railroad	-5166
▁schlafen	-5167
itarbeiter	-5168
▁Bräutigam	-5169
▁Rollstuhl	-5170
▁Sonnensch	-5171
▁courtyard	-5172
▁vollführt	-5173
▁Ausrüstung	-5174
▁rothaarige	-5175
▁motorcycles	-5176
▁unterschied	-5177
▁professional	-5178
▁Hockeyspieler	-5179
▁amerikanische	-5180
▁Straßenkünstler	-5181
ki	-5182
ara	-5183
eds	-5184
egt	-5185
oga	-5186
usk	-5187
▁At	-5188
▁et	-5189
▁sy	-5190
afen	-5191
asst	-5192
heit	-5193
iere	-5194
ipes	-5195
iple	-5196
ippt	-5197
ites	-5198
klam	-5199
stag	-5200
vent	-5201
▁201	-5202
▁Kab	-5203
▁Kam	-5204
▁aco	-5205
▁egg	-5206
▁kla	-5207
▁map	-5208
▁mob	-5209
▁sea	-5210
hilfe	-5211
ither	-5212
orter	-5213
reich	-5214
stoff	-5215
änder	-5216
önnen	-5217
▁Auft	-5218
▁Lehr	-5219
▁Spaz	-5220
▁club	-5221
▁fill	-5222
▁meet	-5223
▁toss	-5224
ospiel	-5225
wasser	-5226
▁Besen	-5227
▁Brust	-5228
▁Matte	-5229
▁Rollt	-5230
▁Tätow	-5231
▁atten	-5232
▁boats	-5233
▁bread	-5234
▁bunte	-5235
▁chest	-5236
▁firef	-5237
▁geben	-5238
▁goods	-5239
▁moves	-5240
▁peace	-5241
▁plant	-5242
▁schle	-5243
▁shown	-5244
▁socks	-5245
▁start	-5246
▁tools	-5247
aurants	-5248
gewicht	-5249
gitarre	-5250
▁Karren	-5251
▁Karten	-5252
▁Kissen	-5253
▁Plakat	-5254
▁Träger	-5255
▁angelt	-5256
▁carpet	-5257
▁either	-5258
▁feiern	-5259
▁hurdle	-5260
▁record	-5261
▁riders	-5262
▁ringen	-5263
▁Polizei	-5264
▁Schäfer	-5265
▁Spielen	-5266
▁bucking	-5267
▁garbage	-5268
▁gezeigt	-5269
▁gleitet	-5270
▁happily	-5271
▁jerseys	-5272
▁mustach	-5273
▁paddelt	-5274
▁pajamas	-5275
▁schreit	-5276
▁soldier	-5277
▁überprü	-5278
▁Fotograf	-5279
▁Geschirr	-5280
▁Keyboard	-5281
▁Teleskop	-5282
▁Tätowier	-5283
▁acoustic	-5284
▁bandanna	-5285
▁benutzen	-5286
▁carriage	-5287
▁cheering	-5288
▁musician	-5289
▁soldiers	-5290
▁touching	-5291
▁Schwimmer	-5292
▁backwards	-5293
▁entertain	-5294
▁hinterher	-5295
▁sitzenden	-5296
▁sitzender	-5297
▁suspended	-5298
▁verlassen	-5299
▁Waldgebiet	-5300
▁rollerskat	-5301
▁marketplace	-5302
▁scaffolding	-5303
▁Neoprenanzug	-5304
▁hellhäutiger	-5305
▁Arbeitskleidung	-5306
."	-5307
öt	-5308
▁6	-5309
erc	-5310
gnü	-5311
hlt	-5312
kte	-5313
pan	-5314
uts	-5315
öhn	-5316
▁He	-5317
▁Vi	-5318
▁Vö	-5319
acks	-5320
aked	-5321
anze	-5322
aved	-5323
cial	-5324
eckt	-5325
hood	-5326
inge	-5327
iven	-5328
luft	-5329
mark	-5330
onne	-5331
pers	-5332
pfer	-5333
rack	-5334
stac	-5335
turn	-5336
udio	-5337
unde	-5338
uses	-5339
vels	-5340
zten	-5341
älde	-5342
älle	-5343
▁Bal	-5344
▁Fil	-5345
▁Leg	-5346
▁McD	-5347
▁Ort	-5348
▁Sil	-5349
▁far	-5350
▁fly	-5351
▁fol	-5352
▁grä	-5353
▁hay	-5354
▁rac	-5355
▁sim	-5356
▁six	-5357
▁tar	-5358
▁tür	-5359
▁win	-5360
aucas	-5361
hosen	-5362
hound	-5363
ility	-5364
rosse	-5365
statt	-5366
uters	-5367
äcken	-5368
änken	-5369
▁Anle	-5370
▁Flie	-5371
▁John	-5372
▁Male	-5373
▁Wild	-5374
▁arch	-5375
▁boun	-5376
▁disk	-5377
▁fans	-5378
▁harn	-5379
▁hind	-5380
▁peer	-5381
▁sail	-5382
▁tops	-5383
▁verz	-5384
gerüst	-5385
stufen	-5386
▁Flugh	-5387
▁Jungs	-5388
▁Namen	-5389
▁Produ	-5390
▁Seven	-5391
▁Theke	-5392
▁White	-5393
▁attra	-5394
▁backs	-5395
▁barre	-5396
▁begut	-5397
▁broom	-5398
▁elekt	-5399
▁float	-5400
▁herab	-5401
▁invol	-5402
▁kehrt	-5403
▁plaza	-5404
▁rugby	-5405
▁selts	-5406
▁shade	-5407
▁stove	-5408
▁teamm	-5409
▁towel	-5410
▁tätow	-5411
chester	-5412
glieder	-5413
laschen	-5414
rutsche	-5415
skinned	-5416
sleeved	-5417
zäunten	-5418
▁Berges	-5419
▁German	-5420
▁Gewand	-5421
▁Hundes	-5422
▁Saxoph	-5423
▁Schiff	-5424
▁Street	-5425
▁action	-5426
▁bewegt	-5427
▁bubble	-5428
▁caught	-5429
▁dining	-5430
▁kneels	-5431
▁living	-5432
▁obstac	-5433
▁paints	-5434
▁parach	-5435
▁raised	-5436
▁schöne	-5437
▁spring	-5438
akeboard	-5439
lattform	-5440
schirmen	-5441
▁Mänteln	-5442
▁Schnurr	-5443
▁airport	-5444
▁alleine	-5445
▁animals	-5446
▁burgund	-5447
▁harness	-5448
▁serving	-5449
▁welding	-5450
▁Auftritt	-5451
▁Handtuch	-5452
▁McDonald	-5453
▁american	-5454
▁entfernt	-5455
▁magazine	-5456
mannschaft	-5457
▁Motocross	-5458
▁Turnhalle	-5459
▁backpacks	-5460
▁befestigt	-5461
▁escalator	-5462
▁glücklich	-5463
▁landscape	-5464
▁underwater	-5465
▁ärmellosen	-5466
▁Nahaufnahme	-5467
▁Schäferhund	-5468
▁vorbeigehen	-5469
▁Afroamerikan	-5470
▁Kapuzenpulli	-5471
▁chinesischen	-5472
▁konzentriert	-5473
▁Tennisschläger	-5474
▁Weihnachtsbaum	-5475
cc	-5476
gek	-5477
ght	-5478
leg	-5479
los	-5480
läs	-5481
pes	-5482
rüh	-5483
zuf	-5484
öte	-5485
▁Da	-5486
▁Do	-5487
▁Kä	-5488
▁Rä	-5489
▁Ty	-5490
ards	-5491
bert	-5492
eigh	-5493
etes	-5494
förm	-5495
ique	-5496
klet	-5497
meln	-5498
satz	-5499
tery	-5500
udel	-5501
uffy	-5502
▁Lin	-5503
▁Min	-5504
▁cer	-5505
▁foc	-5506
▁füt	-5507
▁hos	-5508
▁mas	-5509
▁tut	-5510
▁use	-5511
▁you	-5512
attle	-5513
deckt	-5514
doors	-5515
einen	-5516
epark	-5517
iften	-5518
robat	-5519
salon	-5520
sperr	-5521
▁2012	-5522
▁Brot	-5523
▁Fans	-5524
▁Fing	-5525
▁Jung	-5526
▁Vers	-5527
▁doll	-5528
▁drag	-5529
▁duck	-5530
▁emer	-5531
▁ethn	-5532
▁liqu	-5533
▁nass	-5534
▁pige	-5535
▁pipe	-5536
▁pony	-5537
▁rout	-5538
▁tube	-5539
▁türk	-5540
läsern	-5541
schlag	-5542
schuhe	-5543
sieren	-5544
strand	-5545
yhound	-5546
▁Farbe	-5547
▁Ferns	-5548
▁Labor	-5549
▁Müllt	-5550
▁Segel	-5551
▁angel	-5552
▁drive	-5553
▁folgt	-5554
▁gräbt	-5555
▁heart	-5556
▁jagen	-5557
▁plane	-5558
▁polka	-5559
▁seems	-5560
▁super	-5561
▁trump	-5562
aterial	-5563
chestra	-5564
ifarben	-5565
stühlen	-5566
▁Angelr	-5567
▁Ballon	-5568
▁Fahrer	-5569
▁Fläche	-5570
▁Ketten	-5571
▁Koffer	-5572
▁Soldat	-5573
▁Stapel	-5574
▁Zement	-5575
▁gravel	-5576
▁hooded	-5577
▁hölzer	-5578
▁jockey	-5579
▁kalten	-5580
▁lassen	-5581
▁lehnen	-5582
▁neckla	-5583
▁thrown	-5584
▁travel	-5585
aucasian	-5586
gestelle	-5587
▁Trommel	-5588
▁attempt	-5589
▁bending	-5590
▁braunes	-5591
▁climber	-5592
▁fashion	-5593
▁haircut	-5594
▁offenem	-5595
▁rechten	-5596
▁referee	-5597
▁runners	-5598
▁student	-5599
arterback	-5600
formation	-5601
▁Skulptur	-5602
▁Wandbild	-5603
▁athletic	-5604
▁brushing	-5605
▁entgegen	-5606
▁grilling	-5607
▁jemanden	-5608
▁obstacle	-5609
▁schießen	-5610
▁Handstand	-5611
▁Studenten	-5612
▁amusement	-5613
▁examining	-5614
▁operating	-5615
▁trainiert	-5616
▁Rolltreppe	-5617
▁Wohnzimmer	-5618
▁lächelndes	-5619
▁Gegenstände	-5620
▁khakifarben	-5621
▁Rollerblades	-5622
▁braunhaarige	-5623
▁geschäftigen	-5624
▁schneebedeck	-5625
▁participating	-5626
▁Weihnachtsmann	-5627
mo	-5628
ama	-5629
bro	-5630
bör	-5631
ker	-5632
lex	-5633
omb	-5634
rab	-5635
uba	-5636
ues	-5637
ufe	-5638
▁DJ	-5639
▁aw	-5640
aint	-5641
avig	-5642
cour	-5643
epar	-5644
ewel	-5645
girl	-5646
ikes	-5647
ilot	-5648
ions	-5649
irth	-5650
like	-5651
ness	-5652
oriz	-5653
ured	-5654
utel	-5655
▁Heu	-5656
▁Jog	-5657
▁Oze	-5658
▁Pär	-5659
▁adm	-5660
▁ros	-5661
▁saw	-5662
▁try	-5663
ament	-5664
arrow	-5665
aumen	-5666
geren	-5667
ichen	-5668
latte	-5669
ommun	-5670
rates	-5671
richt	-5672
▁Blas	-5673
▁Dunk	-5674
▁Gang	-5675
▁Gass	-5676
▁Häus	-5677
▁Klav	-5678
▁Zahn	-5679
▁also	-5680
▁appl	-5681
▁baut	-5682
▁care	-5683
▁cast	-5684
▁chop	-5685
▁cone	-5686
▁dump	-5687
▁gesp	-5688
▁half	-5689
▁nied	-5690
▁prob	-5691
▁ribb	-5692
▁sets	-5693
▁thin	-5694
▁trip	-5695
▁wide	-5696
männer	-5697
shirts	-5698
wegung	-5699
ycling	-5700
▁Brown	-5701
▁Feier	-5702
▁Figur	-5703
▁Füßen	-5704
▁Hocke	-5705
▁Staub	-5706
▁Strom	-5707
▁bewöl	-5708
▁candy	-5709
▁coach	-5710
▁demon	-5711
▁exerc	-5712
▁geblü	-5713
▁heels	-5714
▁hören	-5715
▁ihres	-5716
▁model	-5717
▁money	-5718
▁muddy	-5719
▁pitch	-5720
▁ropes	-5721
▁statt	-5722
▁thumb	-5723
▁wagon	-5724
▁weint	-5725
▁youth	-5726
ighters	-5727
zeichen	-5728
▁Daumen	-5729
▁Eltern	-5730
▁Gegner	-5731
▁Pfütze	-5732
▁Spitze	-5733
▁jungle	-5734
▁kochen	-5735
▁nähert	-5736
▁runden	-5737
▁sleeve	-5738
▁studio	-5739
▁things	-5740
enschaft	-5741
periment	-5742
▁Ballons	-5743
▁Bushalt	-5744
▁Drachen	-5745
▁Gemälde	-5746
▁Kleiner	-5747
▁Pfosten	-5748
▁Pärchen	-5749
▁Trompet	-5750
▁Werbung	-5751
▁benches	-5752
▁blondem	-5753
▁bringen	-5754
▁compete	-5755
▁control	-5756
▁daneben	-5757
▁frisbee	-5758
▁gelehnt	-5759
▁hallway	-5760
▁hitting	-5761
▁outstre	-5762
▁redhead	-5763
▁sharing	-5764
▁steilen	-5765
▁teacher	-5766
▁Behälter	-5767
▁Freizeit	-5768
▁Japanese	-5769
▁bathroom	-5770
▁brünette	-5771
▁crouches	-5772
▁cyclists	-5773
▁komplett	-5774
▁mehrfarb	-5775
▁opponent	-5776
▁practice	-5777
▁sandwich	-5778
▁sticking	-5779
▁vehicles	-5780
▁Jahrmarkt	-5781
▁checkered	-5782
▁decorated	-5783
▁headscarf	-5784
▁hölzernen	-5785
▁orchestra	-5786
▁schaufelt	-5787
▁stehenden	-5788
▁Bildschirm	-5789
▁Trägerhemd	-5790
▁individual	-5791
▁streichelt	-5792
▁Kunststücke	-5793
▁pedestrians	-5794
▁photographs	-5795
▁Mountainbike	-5796
▁kahlköpfiger	-5797
▁presentation	-5798
▁Baseballkappe	-5799
▁Sonnenbrillen	-5800
▁dunkelhaarige	-5801
▁Bushaltestelle	-5802
ana	-5803
bow	-5804
gle	-5805
hol	-5806
ims	-5807
iny	-5808
kan	-5809
kon	-5810
par	-5811
prä	-5812
xas	-5813
anad	-5814
coat	-5815
down	-5816
ibly	-5817
imon	-5818
othe	-5819
pool	-5820
quet	-5821
seit	-5822
üren	-5823
▁Bat	-5824
▁Dor	-5825
▁Inl	-5826
▁Kör	-5827
▁Pod	-5828
▁Sub	-5829
▁aqu	-5830
▁cal	-5831
▁fin	-5832
▁grö	-5833
▁let	-5834
▁nah	-5835
arves	-5836
bogen	-5837
gings	-5838
house	-5839
hüter	-5840
inery	-5841
kugel	-5842
lasse	-5843
merks	-5844
order	-5845
ption	-5846
uster	-5847
ustik	-5848
▁Cafe	-5849
▁Deck	-5850
▁Gumm	-5851
▁High	-5852
▁Kart	-5853
▁Pier	-5854
▁Topf	-5855
▁abge	-5856
▁ceil	-5857
▁dish	-5858
▁dune	-5859
▁ears	-5860
▁entr	-5861
▁leaf	-5862
▁live	-5863
▁muzz	-5864
▁only	-5865
▁scre	-5866
▁sink	-5867
▁wand	-5868
▁Über	-5869
engers	-5870
etrack	-5871
ffitis	-5872
isting	-5873
weißem	-5874
▁China	-5875
▁Freil	-5876
▁Gassi	-5877
▁Gerät	-5878
▁Hafen	-5879
▁Hürde	-5880
▁Trans	-5881
▁adjus	-5882
▁brenn	-5883
▁dribb	-5884
▁eleph	-5885
▁jewel	-5886
▁joggt	-5887
▁neigh	-5888
▁order	-5889
▁patio	-5890
▁racer	-5891
▁rests	-5892
▁sechs	-5893
händler	-5894
ineskat	-5895
irthday	-5896
▁Dieses	-5897
▁Hammer	-5898
▁Kisten	-5899
▁Socken	-5900
▁attent	-5901
▁bewund	-5902
▁cleans	-5903
▁figure	-5904
▁fruits	-5905
▁garage	-5906
▁heißen	-5907
▁hinein	-5908
▁native	-5909
▁rowing	-5910
▁slides	-5911
▁speech	-5912
▁summer	-5913
haarigen	-5914
streifen	-5915
▁Klavier	-5916
▁drummer	-5917
▁excited	-5918
▁feeding	-5919
▁geparkt	-5920
▁guitars	-5921
▁pattern	-5922
▁spritzt	-5923
▁Rettungs	-5924
▁Saxophon	-5925
▁barbecue	-5926
▁bearbeit	-5927
▁beschäft	-5928
▁goldenen	-5929
▁jüngeren	-5930
▁mustache	-5931
▁scheinen	-5932
▁sporting	-5933
▁zeichnet	-5934
▁Bahnsteig	-5935
▁Graffitis	-5936
▁Kletterer	-5937
▁Picknickt	-5938
▁Skatepark	-5939
▁machinery	-5940
▁motocross	-5941
▁policeman	-5942
▁racetrack	-5943
▁Dreadlocks	-5944
▁Inlineskat	-5945
▁Kopfhörern	-5946
▁Steinmauer	-5947
▁passengers	-5948
▁Jugendliche	-5949
▁Krankenhaus	-5950
▁Motorrädern	-5951
▁Restaurants	-5952
▁Schnurrbart	-5953
▁Stadtstraße	-5954
▁schmutzigen	-5955
▁skateboards	-5956
▁snowboarding	-5957
▁wunderschönen	-5958
▁Menschengruppe	-5959
▁Zuschauermenge	-5960
▁ausgestreckten	-5961
▁Einkaufszentrum	-5962
hl	-5963
sä	-5964
▁-	-5965
▁9	-5966
aal	-5967
bau	-5968
ded	-5969
eht	-5970
fel	-5971
hib	-5972
ieß	-5973
ior	-5974
ipp	-5975
lig	-5976
loy	-5977
lät	-5978
nch	-5979
rik	-5980
ubs	-5981
ugs	-5982
urm	-5983
äht	-5984
äng	-5985
änz	-5986
▁Ne	-5987
▁On	-5988
bble	-5989
hawk	-5990
heim	-5991
innt	-5992
keit	-5993
onen	-5994
uper	-5995
wett	-5996
▁ATV	-5997
▁Ast	-5998
▁Cam	-5999
▁Hal	-6000
▁Hol	-6001
▁Mat	-6002
▁Mom	-6003
▁Näh	-6004
▁Zie	-6005
▁ant	-6006
▁cab	-6007
▁eas	-6008
▁erh	-6009
▁gaz	-6010
▁küm	-6011
auber	-6012
eback	-6013
eicht	-6014
etter	-6015
fting	-6016
gerer	-6017
iesen	-6018
jects	-6019
lässt	-6020
pital	-6021
prung	-6022
raten	-6023
rückt	-6024
scher	-6025
truck	-6026
▁Dorf	-6027
▁Fire	-6028
▁Flip	-6029
▁Füße	-6030
▁Kies	-6031
▁Mark	-6032
▁Rede	-6033
▁Stab	-6034
▁Teen	-6035
▁Zahl	-6036
▁bill	-6037
▁fold	-6038
▁halb	-6039
▁hers	-6040
▁horn	-6041
▁keep	-6042
▁knit	-6043
▁lane	-6044
▁länd	-6045
▁pine	-6046
▁puck	-6047
▁rast	-6048
▁smok	-6049
▁song	-6050
Reifen	-6051
Schild	-6052
ightly	-6053
itteln	-6054
laufen	-6055
reiche	-6056
stange	-6057
▁Balls	-6058
▁Bauch	-6059
▁Brand	-6060
▁Brett	-6061
▁Colle	-6062
▁Crowd	-6063
▁Flüss	-6064
▁Sandd	-6065
▁Schub	-6066
▁Stier	-6067
▁Typen	-6068
▁brush	-6069
▁navig	-6070
▁organ	-6071
▁point	-6072
▁rough	-6073
▁sells	-6074
Gitarre	-6075
agieren	-6076
borhood	-6077
geboren	-6078
merksam	-6079
schafts	-6080
▁Herbst	-6081
▁Nicker	-6082
▁bikers	-6083
▁bushes	-6084
▁direkt	-6085
▁diskut	-6086
▁donkey	-6087
▁museum	-6088
▁narrow	-6089
▁rudert	-6090
aschinen	-6091
▁Bahnhof	-6092
▁Fingern	-6093
▁Geldbör	-6094
▁Traktor	-6095
▁Zeichen	-6096
▁baskets	-6097
▁ceiling	-6098
▁herself	-6099
▁interse	-6100
▁leaving	-6101
▁observe	-6102
▁petting	-6103
▁routine	-6104
▁schwach	-6105
▁stopped	-6106
▁trumpet	-6107
▁älteres	-6108
automaten	-6109
▁Kreuzung	-6110
▁Mädchens	-6111
▁Plastikt	-6112
▁beverage	-6113
▁electron	-6114
▁entrance	-6115
▁headband	-6116
▁hillside	-6117
▁hospital	-6118
▁possibly	-6119
bekleidung	-6120
bildschirm	-6121
▁Flughafen	-6122
▁Getränken	-6123
▁Gitarrist	-6124
▁Hinterhof	-6125
▁Kunstwerk	-6126
▁Orchester	-6127
▁Rennwagen	-6128
▁Trainings	-6129
▁boardwalk	-6130
▁einzelner	-6131
▁gesäumten	-6132
▁horseback	-6133
▁irgendein	-6134
▁photograp	-6135
▁silbernen	-6136
▁Bekleidung	-6137
▁Nickerchen	-6138
▁discussion	-6139
▁Bowlingbahn	-6140
▁Luftballons	-6141
▁Nähmaschine	-6142
▁beschäftigt	-6143
▁vorbeifährt	-6144
▁Anlegestelle	-6145
▁Schutzbrille	-6146
▁intersection	-6147
▁langhaariger	-6148
▁rosafarbenem	-6149
▁Baseballmütze	-6150
▁Baseballspiel	-6151
gl	-6152
go	-6153
gy	-6154
kr	-6155
ata	-6156
bem	-6157
how	-6158
lit	-6159
mit	-6160
neh	-6161
oir	-6162
oly	-6163
osa	-6164
▁It	-6165
▁Pr	-6166
▁Är	-6167
auch	-6168
belt	-6169
boat	-6170
cess	-6171
ernt	-6172
rows	-6173
tops	-6174
used	-6175
öpfe	-6176
ürzt	-6177
▁Gür	-6178
▁Mon	-6179
▁Plü	-6180
▁Squ	-6181
▁Süß	-6182
▁USA	-6183
▁aut	-6184
▁bad	-6185
▁dim	-6186
▁emp	-6187
▁lan	-6188
▁mot	-6189
▁stö	-6190
▁tun	-6191
▁vil	-6192
armon	-6193
benen	-6194
cours	-6195
ctory	-6196
ehren	-6197
essel	-6198
essen	-6199
ially	-6200
iddle	-6201
ieder	-6202
inden	-6203
ooten	-6204
pherd	-6205
reten	-6206
tched	-6207
udels	-6208
wanne	-6209
ärmel	-6210
▁Bike	-6211
▁Gelb	-6212
▁Grün	-6213
▁Heiß	-6214
▁Herd	-6215
▁Khak	-6216
▁Lady	-6217
▁Reif	-6218
▁Teig	-6219
▁Warn	-6220
▁aber	-6221
▁aufs	-6222
▁clay	-6223
▁erkl	-6224
▁free	-6225
▁hugs	-6226
▁kopf	-6227
▁load	-6228
▁mall	-6229
▁navy	-6230
▁pump	-6231
▁span	-6232
▁spot	-6233
▁wife	-6234
anlage	-6235
heirat	-6236
itness	-6237
latten	-6238
nchron	-6239
reitet	-6240
vision	-6241
wohner	-6242
▁Arena	-6243
▁Blume	-6244
▁Demon	-6245
▁Dinge	-6246
▁Dreck	-6247
▁Hütte	-6248
▁Kegel	-6249
▁Large	-6250
▁Moped	-6251
▁Ruder	-6252
▁Stamm	-6253
▁Start	-6254
▁ahead	-6255
▁anhat	-6256
▁ansch	-6257
▁chase	-6258
▁condu	-6259
▁dicht	-6260
▁exhib	-6261
▁fancy	-6262
▁finis	-6263
▁helps	-6264
▁japan	-6265
▁klats	-6266
▁puppy	-6267
▁seats	-6268
▁smoke	-6269
▁terra	-6270
ference	-6271
▁Balken	-6272
▁Bauern	-6273
▁Bänken	-6274
▁Frisbe	-6275
▁Gewehr	-6276
▁Mittag	-6277
▁Modell	-6278
▁Rädern	-6279
▁Schule	-6280
▁Strick	-6281
▁Wänden	-6282
▁batter	-6283
▁dishes	-6284
▁histor	-6285
▁intent	-6286
▁können	-6287
▁maroon	-6288
▁mittel	-6289
▁mixing	-6290
▁modern	-6291
▁moment	-6292
▁mostly	-6293
▁ornate	-6294
▁rubber	-6295
▁schwei	-6296
▁selbst	-6297
▁skates	-6298
▁stones	-6299
▁teilen	-6300
▁Kleines	-6301
▁Outdoor	-6302
▁Outfits	-6303
▁Protest	-6304
▁Schacht	-6305
▁Speisen	-6306
▁african	-6307
▁beladen	-6308
▁bottles	-6309
▁buckets	-6310
▁fencing	-6311
▁flausch	-6312
▁folding	-6313
▁indoors	-6314
▁lachend	-6315
▁patient	-6316
▁stellen	-6317
▁trocken	-6318
▁Freiluft	-6319
▁Strohhut	-6320
▁Trompete	-6321
▁Windhund	-6322
▁berühren	-6323
▁gehalten	-6324
▁indische	-6325
▁mithilfe	-6326
▁tattooed	-6327
landschaft	-6328
▁Angelrute	-6329
▁Gewässers	-6330
▁amüsieren	-6331
▁bedeckten	-6332
▁cardboard	-6333
▁container	-6334
▁geblümten	-6335
▁handstand	-6336
▁interview	-6337
▁squatting	-6338
▁steinigen	-6339
▁verheirat	-6340
▁Fotografen	-6341
▁Kunststoff	-6342
▁Rucksäcken	-6343
▁Wettbewerb	-6344
▁bearbeitet	-6345
▁marschiert	-6346
konstruktion	-6347
▁celebrating	-6348
▁microphones	-6349
▁Bowlingkugel	-6350
▁Schlagzeuger	-6351
▁aufblasbaren	-6352
▁motorcyclist	-6353
▁neighborhood	-6354
▁outstretched	-6355
▁Klettergerüst	-6356
▁Regenschirmen	-6357
▁afrikanischer	-6358
▁amerikanischen	-6359
▁Feuerwehrmänner	-6360
00	-6361
ld	-6362
ma	-6363
pa	-6364
any	-6365
bag	-6366
bel	-6367
bus	-6368
dre	-6369
gie	-6370
iam	-6371
kla	-6372
kre	-6373
nas	-6374
uum	-6375
▁Fä	-6376
▁Kö	-6377
▁Lö	-6378
▁sä	-6379
anie	-6380
buch	-6381
cade	-6382
crem	-6383
deck	-6384
eath	-6385
ense	-6386
flug	-6387
fter	-6388
heel	-6389
igar	-6390
ilar	-6391
ills	-6392
ilts	-6393
ivit	-6394
ktur	-6395
muck	-6396
raht	-6397
schr	-6398
unft	-6399
waff	-6400
ways	-6401
weis	-6402
wood	-6403
ücke	-6404
▁App	-6405
▁Dis	-6406
▁Haw	-6407
▁Mex	-6408
▁She	-6409
▁Tim	-6410
▁Ton	-6411
▁bas	-6412
▁buy	-6413
▁del	-6414
▁dep	-6415
▁dro	-6416
▁erk	-6417
▁fro	-6418
▁gas	-6419
▁nam	-6420
▁odd	-6421
▁scr	-6422
▁sod	-6423
▁sow	-6424
▁tug	-6425
▁typ	-6426
▁zug	-6427
▁ähn	-6428
appen	-6429
asken	-6430
eiger	-6431
etrie	-6432
imate	-6433
iture	-6434
jeans	-6435
kette	-6436
ktive	-6437
leute	-6438
ligen	-6439
maske	-6440
ohemd	-6441
oming	-6442
othek	-6443
präch	-6444
racht	-6445
rampe	-6446
urity	-6447
uting	-6448
waren	-6449
▁Elef	-6450
▁Fass	-6451
▁Lied	-6452
▁Oper	-6453
▁Port	-6454
▁Show	-6455
▁Trib	-6456
▁amid	-6457
▁ausz	-6458
▁bagp	-6459
▁bars	-6460
▁belt	-6461
▁calf	-6462
▁cong	-6463
▁corn	-6464
▁crew	-6465
▁dead	-6466
▁flam	-6467
▁furn	-6468
▁gall	-6469
▁gebe	-6470
▁item	-6471
▁kaut	-6472
▁lamp	-6473
▁rink	-6474
▁tags	-6475
ailing	-6476
athers	-6477
geregt	-6478
herman	-6479
ically	-6480
ittsch	-6481
seitig	-6482
studio	-6483
vollen	-6484
▁Eisen	-6485
▁Elekt	-6486
▁Kaffe	-6487
▁Kamel	-6488
▁Klapp	-6489
▁Noten	-6490
▁Stift	-6491
▁Super	-6492
▁Tafel	-6493
▁Texas	-6494
▁blows	-6495
▁bowls	-6496
▁celeb	-6497
▁choir	-6498
▁embra	-6499
▁first	-6500
▁funny	-6501
▁füllt	-6502
▁glatz	-6503
▁grand	-6504
▁great	-6505
▁lines	-6506
▁merch	-6507
▁newly	-6508
▁patch	-6509
▁rural	-6510
▁scuba	-6511
▁sucht	-6512
▁zusam	-6513
richten	-6514
sschild	-6515
▁Kerzen	-6516
▁Körper	-6517
▁Square	-6518
▁Tattoo	-6519
▁aufger	-6520
▁boxing	-6521
▁crafts	-6522
▁doctor	-6523
▁finger	-6524
▁gepark	-6525
▁hotdog	-6526
▁mobile	-6527
▁pieces	-6528
▁protes	-6529
▁runter	-6530
▁setzen	-6531
▁smokes	-6532
▁stares	-6533
▁steckt	-6534
▁vacuum	-6535
alloween	-6536
endessen	-6537
luftball	-6538
▁balance	-6539
▁carving	-6540
▁cricket	-6541
▁flachen	-6542
▁gefüllt	-6543
▁leading	-6544
▁medical	-6545
▁richtet	-6546
▁riesige	-6547
▁scenery	-6548
▁stripes	-6549
▁swimmer	-6550
▁tattoos	-6551
▁treffen	-6552
▁turning	-6553
leuchtung	-6554
▁Gespräch	-6555
▁Konferen	-6556
▁Rennauto	-6557
▁Schubkar	-6558
▁coloring	-6559
▁flipping	-6560
▁grinding	-6561
▁schwenkt	-6562
▁spinning	-6563
▁Bluejeans	-6564
▁Bordstein	-6565
▁Operation	-6566
▁Plattform	-6567
▁Schneesch	-6568
▁apartment	-6569
▁crouching	-6570
▁firetruck	-6571
▁geschmink	-6572
▁guitarist	-6573
▁kariertem	-6574
▁uniformed	-6575
▁violettem	-6576
▁Abendessen	-6577
▁Sandstrand	-6578
▁Schlittsch	-6579
▁Schwimmbad	-6580
▁bestehende	-6581
▁dreadlocks	-6582
▁erwachsene	-6583
▁inspecting	-6584
▁reflective	-6585
▁sleeveless	-6586
▁storefront	-6587
▁stretching	-6588
▁zusammenge	-6589
▁Flüssigkeit	-6590
▁Fußballfeld	-6591
▁Zeitschrift	-6592
▁begutachtet	-6593
▁gegenseitig	-6594
▁Cheerleaders	-6595
▁Heißluftball	-6596
▁Mannschaften	-6597
▁afrikanische	-6598
▁cheerleaders	-6599
▁dunkelblauen	-6600
▁Picknicktisch	-6601
▁beigefarbenen	-6602
▁Straßenhändler	-6603
KW	-6604
hy	-6605
dan	-6606
eek	-6607
hem	-6608
ika	-6609
min	-6610
mod	-6611
ney	-6612
saw	-6613
wel	-6614
▁Sn	-6615
▁To	-6616
▁iP	-6617
aube	-6618
biss	-6619
born	-6620
gers	-6621
leit	-6622
lter	-6623
offt	-6624
ontä	-6625
schl	-6626
säge	-6627
town	-6628
wöhn	-6629
▁Ble	-6630
▁Gym	-6631
▁LKW	-6632
▁Med	-6633
▁Pal	-6634
▁Pin	-6635
▁abz	-6636
▁cop	-6637
▁daz	-6638
▁dec	-6639
▁dün	-6640
▁fet	-6641
▁got	-6642
▁hum	-6643
▁prü	-6644
▁Öff	-6645
block	-6646
brary	-6647
erous	-6648
gency	-6649
ichts	-6650
ilden	-6651
kolle	-6652
läser	-6653
omach	-6654
opoly	-6655
osaur	-6656
phalt	-6657
recht	-6658
urger	-6659
yloph	-6660
▁Bret	-6661
▁Kalb	-6662
▁Läch	-6663
▁Löff	-6664
▁Mult	-6665
▁Puck	-6666
▁Robe	-6667
▁Vord	-6668
▁bass	-6669
▁boul	-6670
▁bund	-6671
▁calm	-6672
▁char	-6673
▁comf	-6674
▁cuts	-6675
▁deut	-6676
▁enth	-6677
▁fegt	-6678
▁gefl	-6679
▁insp	-6680
▁kite	-6681
▁mass	-6682
▁name	-6683
▁noch	-6684
▁sack	-6685
▁seem	-6686
▁sofa	-6687
▁tied	-6688
▁weat	-6689
acting	-6690
brücke	-6691
gender	-6692
ighter	-6693
ipping	-6694
kinder	-6695
leiter	-6696
nasium	-6697
nehmen	-6698
sprung	-6699
stehen	-6700
ussell	-6701
▁Fahne	-6702
▁Fahrt	-6703
▁Frise	-6704
▁Girls	-6705
▁Halst	-6706
▁Hilfe	-6707
▁Hotel	-6708
▁Rauch	-6709
▁beißt	-6710
▁crane	-6711
▁dekor	-6712
▁derby	-6713
▁dimly	-6714
▁doors	-6715
▁enter	-6716
▁moped	-6717
▁paras	-6718
▁parkt	-6719
▁rainy	-6720
▁relig	-6721
▁rollt	-6722
▁snack	-6723
▁speed	-6724
▁tower	-6725
▁vorne	-6726
artigen	-6727
erseite	-6728
izieren	-6729
richtet	-6730
urtstag	-6731
▁Becken	-6732
▁Comput	-6733
▁Dudels	-6734
▁Lehrer	-6735
▁Lippen	-6736
▁Middle	-6737
▁Palmen	-6738
▁Röcken	-6739
▁Sommer	-6740
▁Tricks	-6741
▁Umhang	-6742
▁altmod	-6743
▁banner	-6744
▁barrel	-6745
▁broken	-6746
▁bunter	-6747
▁column	-6748
▁ethnic	-6749
▁findet	-6750
▁finish	-6751
▁fluffy	-6752
▁leicht	-6753
▁member	-6754
▁raises	-6755
▁wheels	-6756
Oberteil	-6757
escheibe	-6758
gehalten	-6759
▁Absperr	-6760
▁Gymnast	-6761
▁Kleider	-6762
▁Lächeln	-6763
▁Orangen	-6764
▁Pitcher	-6765
▁Schwert	-6766
▁balding	-6767
▁candles	-6768
▁demonst	-6769
▁füttert	-6770
▁gepunkt	-6771
▁jüngere	-6772
▁library	-6773
▁listens	-6774
▁objects	-6775
▁pigeons	-6776
▁similar	-6777
▁viewing	-6778
▁wandern	-6779
▁Brandung	-6780
▁Grimasse	-6781
▁Sanddüne	-6782
▁Sängerin	-6783
▁Turnerin	-6784
▁balances	-6785
▁birthday	-6786
▁intently	-6787
▁kopfüber	-6788
▁offenbar	-6789
▁planscht	-6790
▁schweißt	-6791
▁spraying	-6792
▁stairway	-6793
▁ungewöhn	-6794
volleyball	-6795
▁Geldbörse	-6796
▁Reifensch	-6797
▁Surfboard	-6798
▁Verkäufer	-6799
▁bewölkten	-6800
▁computers	-6801
▁following	-6802
▁furniture	-6803
▁greyhound	-6804
▁gymnasium	-6805
▁motorbike	-6806
▁nighttime	-6807
▁partially	-6808
▁vegetable	-6809
instrumente	-6810
▁Geburtstag	-6811
▁Geschäften	-6812
▁Grasfläche	-6813
▁Jeansjacke	-6814
▁Sportwagen	-6815
▁Waschsalon	-6816
▁conference	-6817
▁discussing	-6818
▁entspannen	-6819
▁trainieren	-6820
▁Schlafanzug	-6821
▁Süßigkeiten	-6822
▁approaching	-6823
▁surrounding	-6824
▁untersuchen	-6825
▁farbenfroher	-6826
▁Feuerwehrmann	-6827
▁Spielkleidung	-6828
▁Wasserflasche	-6829
▁Frisbeescheibe	-6830
▁dunkelhaariger	-6831
▁Basketballspiel	-6832
kü	-6833
▁&	-6834
aps	-6835
ato	-6836
bed	-6837
dig	-6838
emp	-6839
flü	-6840
lad	-6841
nes	-6842
udd	-6843
usi	-6844
vie	-6845
wen	-6846
wes	-6847
öst	-6848
üff	-6849
▁Ad	-6850
▁Di	-6851
▁Is	-6852
▁Pl	-6853
▁Zw	-6854
▁ak	-6855
▁ic	-6856
Hemd	-6857
abel	-6858
anke	-6859
appy	-6860
ator	-6861
burg	-6862
chan	-6863
club	-6864
ebra	-6865
ehör	-6866
ench	-6867
foto	-6868
hlen	-6869
hren	-6870
hten	-6871
ilet	-6872
ilst	-6873
izin	-6874
obby	-6875
okal	-6876
rier	-6877
ränk	-6878
tail	-6879
uckt	-6880
voll	-6881
wurf	-6882
ühle	-6883
▁For	-6884
▁Iro	-6885
▁Kür	-6886
▁Pel	-6887
▁Tal	-6888
▁Vol	-6889
▁Web	-6890
▁deb	-6891
▁mod	-6892
▁mög	-6893
▁neu	-6894
▁pop	-6895
▁sad	-6896
▁sen	-6897
▁sla	-6898
▁sne	-6899
▁tee	-6900
aiten	-6901
alung	-6902
anien	-6903
arium	-6904
borne	-6905
ckter	-6906
ctors	-6907
dlers	-6908
egeln	-6909
horts	-6910
ierst	-6911
ietet	-6912
iksch	-6913
ildet	-6914
iring	-6915
lings	-6916
onder	-6917
orgen	-6918
tered	-6919
tisch	-6920
trick	-6921
usses	-6922
ämmer	-6923
▁Auss	-6924
▁Bass	-6925
▁Chor	-6926
▁Elmo	-6927
▁Esel	-6928
▁Flur	-6929
▁Lang	-6930
▁Säug	-6931
▁Walm	-6932
▁Zieg	-6933
▁aufz	-6934
▁chew	-6935
▁conf	-6936
▁dazu	-6937
▁expl	-6938
▁heav	-6939
▁hits	-6940
▁iron	-6941
▁main	-6942
▁more	-6943
▁nets	-6944
▁näht	-6945
▁ober	-6946
▁push	-6947
▁remo	-6948
▁spar	-6949
▁taxi	-6950
ameram	-6951
braune	-6952
leicht	-6953
leitet	-6954
werfer	-6955
ängern	-6956
▁Beine	-6957
▁Bogen	-6958
▁Einer	-6959
▁Hawai	-6960
▁Holzt	-6961
▁Khaki	-6962
▁Natur	-6963
▁Piste	-6964
▁Schot	-6965
▁Stufe	-6966
▁Swimm	-6967
▁Vögel	-6968
▁While	-6969
▁angeb	-6970
▁binoc	-6971
▁bückt	-6972
▁carry	-6973
▁engen	-6974
▁hoops	-6975
▁lange	-6976
▁malen	-6977
▁nächs	-6978
▁share	-6979
▁space	-6980
▁spoon	-6981
▁style	-6982
▁turns	-6983
agessen	-6984
elmauer	-6985
haltung	-6986
ierende	-6987
iergang	-6988
schmuck	-6989
uniform	-6990
▁Baumes	-6991
▁Bergst	-6992
▁Decken	-6993
▁Einrad	-6994
▁Herren	-6995
▁Kapuze	-6996
▁Messer	-6997
▁Moment	-6998
▁Podium	-6999
▁Reklam	-7000
▁Saiten	-7001
▁Welpen	-7002
▁ausgeb	-7003
▁barber	-7004
▁branch	-7005
▁called	-7006
▁castle	-7007
▁cobble	-7008
▁faulen	-7009
▁groups	-7010
▁indian	-7011
▁jubeln	-7012
▁liquid	-7013
▁nieder	-7014
▁paddle	-7015
▁papers	-7016
▁passen	-7017
▁photos	-7018
▁plates	-7019
▁ribbon	-7020
▁shades	-7021
▁shaped	-7022
▁shaved	-7023
▁spread	-7024
▁treibt	-7025
▁wischt	-7026
bemalung	-7027
eichnung	-7028
farbenes	-7029
förmigen	-7030
geworfen	-7031
schaukel	-7032
▁Afrikan	-7033
▁Akustik	-7034
▁Büschen	-7035
▁Eiscrem	-7036
▁Fernseh	-7037
▁Kricket	-7038
▁Violine	-7039
▁Waldweg	-7040
▁amongst	-7041
▁bedruck	-7042
▁beneath	-7043
▁catcher	-7044
▁college	-7045
▁crosses	-7046
▁engaged	-7047
▁fireman	-7048
▁fliegen	-7049
▁follows	-7050
▁forward	-7051
▁jewelry	-7052
▁rainbow	-7053
▁raising	-7054
▁sammelt	-7055
▁schlend	-7056
▁shovels	-7057
▁smaller	-7058
▁stomach	-7059
▁theater	-7060
▁trailer	-7061
▁village	-7062
▁weather	-7063
▁wrestle	-7064
▁Flaschen	-7065
▁Maulkorb	-7066
▁Schirmen	-7067
▁befahren	-7068
▁bekommen	-7069
▁elephant	-7070
▁erleucht	-7071
▁festhält	-7072
▁flowered	-7073
▁gleichen	-7074
▁lounging	-7075
▁material	-7076
▁necklace	-7077
▁reinigen	-7078
▁security	-7079
▁starting	-7080
▁stehende	-7081
▁teammate	-7082
▁training	-7083
▁unicycle	-7084
▁verlässt	-7085
▁Badewanne	-7086
▁Elefanten	-7087
▁Mountainb	-7088
▁Schildern	-7089
▁aufgeregt	-7090
▁bespritzt	-7091
▁bewundert	-7092
▁billboard	-7093
▁langärmel	-7094
▁observing	-7095
▁scheinbar	-7096
▁überprüft	-7097
issenschaft	-7098
▁Motorräder	-7099
▁Schubkarre	-7100
▁Silhouette	-7101
▁Straßenmus	-7102
▁Videospiel	-7103
▁Wettrennen	-7104
▁directions	-7105
▁electronic	-7106
▁television	-7107
▁Klassenraum	-7108
▁Mittagessen	-7109
▁Motorroller	-7110
▁Ziegelmauer	-7111
▁advertising	-7112
▁diskutieren	-7113
▁marschieren	-7114
▁participate	-7115
▁übergewicht	-7116
▁Blumenmuster	-7117
▁Fahrgeschäft	-7118
▁ausgebreitet	-7119
▁eingezäunten	-7120
▁Sportkleidung	-7121
▁Teenageralter	-7122
▁orangefarbene	-7123
▁Afroamerikaner	-7124
Te	-7125
bä	-7126
mt	-7127
uk	-7128
ux	-7129
▁#	-7130
▁'	-7131
abe	-7132
act	-7133
akt	-7134
can	-7135
cks	-7136
emi	-7137
gro	-7138
oca	-7139
ote	-7140
tag	-7141
tre	-7142
tty	-7143
wor	-7144
ydr	-7145
äuf	-7146
ünd	-7147
ütz	-7148
▁Ho	-7149
▁op	-7150
aris	-7151
bare	-7152
eddy	-7153
enga	-7154
erby	-7155
etzt	-7156
ibli	-7157
ices	-7158
ific	-7159
ikul	-7160
isle	-7161
lern	-7162
oned	-7163
rosa	-7164
schü	-7165
spre	-7166
stem	-7167
umin	-7168
vors	-7169
yram	-7170
▁Amp	-7171
▁Küh	-7172
▁Net	-7173
▁Pad	-7174
▁Ped	-7175
▁ext	-7176
▁job	-7177
▁min	-7178
▁mop	-7179
▁pee	-7180
▁rod	-7181
▁ung	-7182
▁wig	-7183
▁ört	-7184
abrik	-7185
alken	-7186
aming	-7187
ampen	-7188
ative	-7189
auten	-7190
boten	-7191
decke	-7192
draht	-7193
endem	-7194
gende	-7195
glied	-7196
ießen	-7197
inten	-7198
itors	-7199
izing	-7200
karte	-7201
nimmt	-7202
ocial	-7203
oodle	-7204
rigen	-7205
stone	-7206
teams	-7207
ucker	-7208
ulars	-7209
ungsp	-7210
unken	-7211
ücken	-7212
▁Bill	-7213
▁Club	-7214
▁Coca	-7215
▁Floß	-7216
▁Flug	-7217
▁Food	-7218
▁Kran	-7219
▁Punk	-7220
▁Wach	-7221
▁Wart	-7222
▁baum	-7223
▁bege	-7224
▁cape	-7225
▁caps	-7226
▁come	-7227
▁cras	-7228
▁cray	-7229
▁cree	-7230
▁entw	-7231
▁fake	-7232
▁flat	-7233
▁gift	-7234
▁gown	-7235
▁groß	-7236
▁guns	-7237
▁neue	-7238
▁poor	-7239
▁purs	-7240
▁upon	-7241
▁webt	-7242
ations	-7243
beutel	-7244
esting	-7245
haufen	-7246
iertes	-7247
legten	-7248
mittel	-7249
nehmer	-7250
pieler	-7251
rüchte	-7252
sleeve	-7253
sstand	-7254
trikot	-7255
wäsche	-7256
zeitig	-7257
▁Beach	-7258
▁Bibli	-7259
▁Boots	-7260
▁Break	-7261
▁Einem	-7262
▁Jenga	-7263
▁Kiste	-7264
▁Köche	-7265
▁Pfadf	-7266
▁Rande	-7267
▁Staff	-7268
▁Table	-7269
▁Trink	-7270
▁aisle	-7271
▁apple	-7272
▁brows	-7273
▁camel	-7274
▁chefs	-7275
▁craft	-7276
▁dough	-7277
▁glove	-7278
▁graue	-7279
▁ident	-7280
▁leads	-7281
▁naked	-7282
▁power	-7283
▁press	-7284
▁quick	-7285
▁races	-7286
▁rosar	-7287
▁shops	-7288
▁silly	-7289
▁steel	-7290
▁still	-7291
▁tents	-7292
▁tight	-7293
▁trunk	-7294
colored	-7295
enstern	-7296
kapelle	-7297
rolling	-7298
schnitt	-7299
▁Achter	-7300
▁Hotdog	-7301
▁Irokes	-7302
▁Kreide	-7303
▁Köpfen	-7304
▁Laufen	-7305
▁Locken	-7306
▁Löffel	-7307
▁Museum	-7308
▁Poster	-7309
▁Soccer	-7310
▁Spiels	-7311
▁Tauben	-7312
▁Zöpfen	-7313
▁biking	-7314
▁bleach	-7315
▁casual	-7316
▁employ	-7317
▁engine	-7318
▁feiert	-7319
▁follow	-7320
▁houses	-7321
▁joggen	-7322
▁landet	-7323
▁nature	-7324
▁pillow	-7325
▁schrei	-7326
▁shakes	-7327
▁snowsh	-7328
▁target	-7329
▁wading	-7330
▁wendet	-7331
▁whilst	-7332
flugzeug	-7333
gebäudes	-7334
gelassen	-7335
springen	-7336
ämmerung	-7337
▁Bandana	-7338
▁College	-7339
▁Häusern	-7340
▁Kameras	-7341
▁Maschen	-7342
▁Schmuck	-7343
▁Schmutz	-7344
▁Stangen	-7345
▁Walmart	-7346
▁beginnt	-7347
▁cameras	-7348
▁closeup	-7349
▁congreg	-7350
▁drinnen	-7351
▁feather	-7352
▁greifen	-7353
▁lifting	-7354
▁loading	-7355
▁newborn	-7356
▁peering	-7357
▁pottery	-7358
▁präsent	-7359
▁repairs	-7360
▁ruhigen	-7361
▁schlamm	-7362
▁spieler	-7363
▁starren	-7364
▁terrain	-7365
▁weaving	-7366
geborenes	-7367
▁Blättern	-7368
▁Fahrrads	-7369
▁Fernglas	-7370
▁Streifen	-7371
▁Students	-7372
▁Torhüter	-7373
▁admiring	-7374
▁airborne	-7375
▁downtown	-7376
▁einsamer	-7377
▁farbigen	-7378
▁gestikul	-7379
▁hindurch	-7380
▁lockigen	-7381
▁machines	-7382
▁nächsten	-7383
▁schieben	-7384
▁slightly	-7385
▁snowsuit	-7386
▁splashes	-7387
▁straight	-7388
▁synchron	-7389
▁tourists	-7390
▁verdeckt	-7391
▁wheelbar	-7392
▁Dudelsack	-7393
▁Gewändern	-7394
▁Grimassen	-7395
▁Halloween	-7396
▁Radrennen	-7397
▁Stirnband	-7398
▁ballerina	-7399
▁fisherman	-7400
▁gewickelt	-7401
▁passenger	-7402
▁receiving	-7403
▁redheaded	-7404
▁sprinkler	-7405
▁teilweise	-7406
geschnitten	-7407
räsentation	-7408
▁Asiatinnen	-7409
▁Aufführung	-7410
▁Bibliothek	-7411
▁Innenstadt	-7412
▁Marktplatz	-7413
▁Mitglieder	-7414
▁binoculars	-7415
▁ländlichen	-7416
▁protesting	-7417
▁städtische	-7418
▁vielleicht	-7419
▁vorbeigeht	-7420
▁zubereitet	-7421
▁ausgestellt	-7422
▁aussehenden	-7423
▁cobblestone	-7424
▁entlanggeht	-7425
▁interacting	-7426
▁rosafarbene	-7427
▁rothaariges	-7428
▁verkleidete	-7429
▁Maschendraht	-7430
▁Sonnenschirm	-7431
▁ausgestreckt	-7432
▁gleichzeitig	-7433
▁photographed	-7434
▁glatzköpfiger	-7435
▁khakifarbenen	-7436
▁Akustikgitarre	-7437
▁Reifenschaukel	-7438
▁Rettungswesten	-7439
▁Snowboardfahrer	-7440
▁Tennisspielerin	-7441
ou	-7442
▁.	-7443
axo	-7444
bis	-7445
ebe	-7446
edo	-7447
eim	-7448
emb	-7449
hrt	-7450
lim	-7451
org	-7452
utt	-7453
zte	-7454
▁10	-7455
▁Fe	-7456
▁Sc	-7457
▁di	-7458
▁lö	-7459
Amer	-7460
agel	-7461
anas	-7462
corn	-7463
ebla	-7464
eife	-7465
ello	-7466
erry	-7467
etti	-7468
isto	-7469
ital	-7470
jung	-7471
kurs	-7472
länd	-7473
ocal	-7474
olor	-7475
omin	-7476
onge	-7477
opes	-7478
pfad	-7479
pfel	-7480
pren	-7481
rest	-7482
rohr	-7483
sitz	-7484
trie	-7485
unds	-7486
uten	-7487
zelt	-7488
▁Ath	-7489
▁Ent	-7490
▁Feu	-7491
▁Hos	-7492
▁Lac	-7493
▁Neu	-7494
▁Top	-7495
▁dad	-7496
▁fle	-7497
▁hom	-7498
▁leb	-7499
▁may	-7500
▁own	-7501
▁rad	-7502
▁tho	-7503
▁tom	-7504
▁ump	-7505
▁zuh	-7506
ackel	-7507
ebook	-7508
eight	-7509
emony	-7510
ernen	-7511
eschw	-7512
essor	-7513
falls	-7514
figur	-7515
haube	-7516
kante	-7517
kunst	-7518
loser	-7519
läuft	-7520
oking	-7521
oping	-7522
otard	-7523
rolle	-7524
sseln	-7525
sters	-7526
style	-7527
tritt	-7528
ually	-7529
uffet	-7530
utfit	-7531
wandt	-7532
werke	-7533
ündel	-7534
▁Bear	-7535
▁Farb	-7536
▁Home	-7537
▁Kont	-7538
▁Play	-7539
▁Quad	-7540
▁Sack	-7541
▁Saxo	-7542
▁Stat	-7543
▁Taxi	-7544
▁Vort	-7545
▁acht	-7546
▁cann	-7547
▁craw	-7548
▁cups	-7549
▁dusk	-7550
▁eggs	-7551
▁größ	-7552
▁hamm	-7553
▁lead	-7554
▁loom	-7555
▁oven	-7556
▁pigt	-7557
▁trol	-7558
▁verb	-7559
etafel	-7560
gesetz	-7561
hammer	-7562
hängen	-7563
hänger	-7564
icking	-7565
inebla	-7566
istole	-7567
lichem	-7568
menade	-7569
tspiel	-7570
weight	-7571
▁Asien	-7572
▁Flöte	-7573
▁Fried	-7574
▁Karte	-7575
▁Kugel	-7576
▁Later	-7577
▁Ohren	-7578
▁Ozean	-7579
▁Schlä	-7580
▁Szene	-7581
▁Times	-7582
▁Wange	-7583
▁angem	-7584
▁bevor	-7585
▁drill	-7586
▁flips	-7587
▁flute	-7588
▁horiz	-7589
▁leckt	-7590
▁lower	-7591
▁messy	-7592
▁pizza	-7593
▁ricks	-7594
▁scout	-7595
▁sniff	-7596
▁sowie	-7597
▁tires	-7598
▁wings	-7599
▁world	-7600
▁Älter	-7601
Station	-7602
Zeichen	-7603
artment	-7604
blading	-7605
entlich	-7606
gestell	-7607
itorium	-7608
steinen	-7609
▁Bällen	-7610
▁Bühnen	-7611
▁Europe	-7612
▁Hosent	-7613
▁Jacket	-7614
▁Kindes	-7615
▁Labork	-7616
▁Liefer	-7617
▁Mittel	-7618
▁Mützen	-7619
▁Ringer	-7620
▁Schach	-7621
▁Seilen	-7622
▁Stehen	-7623
▁Stofft	-7624
▁Stühle	-7625
▁Subway	-7626
▁Tanzen	-7627
▁abends	-7628
▁aufgeb	-7629
▁bilden	-7630
▁brauen	-7631
▁butter	-7632
▁checks	-7633
▁commun	-7634
▁debris	-7635
▁dieser	-7636
▁fertig	-7637
▁graben	-7638
▁handle	-7639
▁instru	-7640
▁jubelt	-7641
▁lounge	-7642
▁mechan	-7643
▁portra	-7644
▁pretty	-7645
▁rechte	-7646
▁schwer	-7647
▁shadow	-7648
▁social	-7649
skulptur	-7650
standers	-7651
▁Cowboys	-7652
▁Friseur	-7653
▁Händler	-7654
▁Papiere	-7655
▁Saxofon	-7656
▁Schneeh	-7657
▁Station	-7658
▁Tourist	-7659
▁Trainer	-7660
▁Tribüne	-7661
▁Univers	-7662
▁Vortrag	-7663
▁barrier	-7664
▁bewegen	-7665
▁coaster	-7666
▁complet	-7667
▁contest	-7668
▁enthusi	-7669
▁express	-7670
▁factory	-7671
▁grillen	-7672
▁landing	-7673
▁laptops	-7674
▁lecture	-7675
▁meeting	-7676
▁oranges	-7677
▁praying	-7678
▁rauchen	-7679
▁reflekt	-7680
▁sailing	-7681
▁shining	-7682
▁spotted	-7683
▁stehend	-7684
▁Gitarren	-7685
▁Golfball	-7686
▁Halstuch	-7687
▁Multiple	-7688
▁Sandwich	-7689
▁Schilder	-7690
▁breakdan	-7691
▁browsing	-7692
▁burgundy	-7693
▁ceremony	-7694
▁chainsaw	-7695
▁converse	-7696
▁customer	-7697
▁eingesch	-7698
▁entering	-7699
▁examines	-7700
▁gestures	-7701
▁klatscht	-7702
▁observes	-7703
▁official	-7704
▁overhead	-7705
▁rickshaw	-7706
▁sneakers	-7707
▁streicht	-7708
▁studying	-7709
▁swimmers	-7710
▁teaching	-7711
▁tropical	-7712
▁waterway	-7713
▁Caucasian	-7714
▁Gymnastik	-7715
▁Handschuh	-7716
▁Mülltonne	-7717
▁Segelboot	-7718
▁Wakeboard	-7719
▁Wasserski	-7720
▁Werkstatt	-7721
▁attention	-7722
▁bleachers	-7723
▁geparkten	-7724
▁groceries	-7725
▁indischer	-7726
▁stehender	-7727
▁Achterbahn	-7728
▁Badezimmer	-7729
▁Kettensäge	-7730
▁Luftballon	-7731
▁Pferdeschw	-7732
▁Radfahrern	-7733
▁aufmerksam	-7734
▁consisting	-7735
▁waterfront	-7736
lasterstraße	-7737
▁Bauarbeiten	-7738
▁Beleuchtung	-7739
▁Plastiktüte	-7740
▁Strickmütze	-7741
▁Versammlung	-7742
▁aufgestellt	-7743
▁erwachsener	-7744
▁gestreiftes	-7745
▁langhaarige	-7746
▁vorbereitet	-7747
▁wheelbarrow	-7748
▁Inlineskates	-7749
▁firefighters	-7750
▁gestikuliert	-7751
▁rosafarbener	-7752
▁unbefestigte	-7753
▁verheiratetes	-7754
Fl	-7755
äb	-7756
üd	-7757
▁8	-7758
Hut	-7759
ams	-7760
cil	-7761
ena	-7762
ios	-7763
iot	-7764
kin	-7765
kle	-7766
kul	-7767
kör	-7768
oft	-7769
pre	-7770
quo	-7771
val	-7772
äun	-7773
▁11	-7774
▁Et	-7775
▁Ma	-7776
▁NY	-7777
▁Pa	-7778
▁Ph	-7779
▁av	-7780
▁fo	-7781
▁if	-7782
▁ju	-7783
Mann	-7784
ably	-7785
ault	-7786
bett	-7787
blät	-7788
ebel	-7789
ells	-7790
estr	-7791
ford	-7792
gnüg	-7793
hill	-7794
iami	-7795
irig	-7796
leas	-7797
mern	-7798
mint	-7799
olen	-7800
putz	-7801
rail	-7802
ramm	-7803
rank	-7804
rauß	-7805
steh	-7806
tens	-7807
ttet	-7808
ults	-7809
very	-7810
ände	-7811
äste	-7812
ülle	-7813
ürst	-7814
▁Car	-7815
▁Fem	-7816
▁Mün	-7817
▁Reg	-7818
▁Ste	-7819
▁Tee	-7820
▁Uhr	-7821
▁Unt	-7822
▁anh	-7823
▁ich	-7824
▁inj	-7825
▁jet	-7826
▁lac	-7827
▁lar	-7828
▁los	-7829
▁maj	-7830
▁occ	-7831
▁pun	-7832
▁tri	-7833
▁trü	-7834
amboo	-7835
ambus	-7836
annel	-7837
attel	-7838
brush	-7839
dance	-7840
enken	-7841
feier	-7842
ichte	-7843
immed	-7844
inner	-7845
ipfel	-7846
küche	-7847
lauch	-7848
neite	-7849
nisse	-7850
obahn	-7851
ochen	-7852
olate	-7853
olken	-7854
ompan	-7855
opter	-7856
romat	-7857
räfte	-7858
under	-7859
urses	-7860
ürste	-7861
▁Arzt	-7862
▁Best	-7863
▁Bohr	-7864
▁Boys	-7865
▁Film	-7866
▁Glat	-7867
▁Hüte	-7868
▁Jeep	-7869
▁Kell	-7870
▁Knei	-7871
▁Lein	-7872
▁Leit	-7873
▁Pink	-7874
▁Pull	-7875
▁Soon	-7876
▁Yoga	-7877
▁been	-7878
▁beis	-7879
▁bite	-7880
▁blur	-7881
▁bron	-7882
▁brot	-7883
▁call	-7884
▁clad	-7885
▁conc	-7886
▁euro	-7887
▁give	-7888
▁herr	-7889
▁iPod	-7890
▁masc	-7891
▁recl	-7892
▁rück	-7893
▁scra	-7894
▁seas	-7895
▁sele	-7896
▁semi	-7897
▁tape	-7898
▁teal	-7899
▁trib	-7900
▁verd	-7901
▁wrap	-7902
▁yoga	-7903
▁ziel	-7904
▁zuge	-7905
Kostüm	-7906
andise	-7907
blauem	-7908
ehraut	-7909
errier	-7910
grauen	-7911
hockey	-7912
ienten	-7913
iziert	-7914
kasten	-7915
minton	-7916
ontäne	-7917
ooters	-7918
orange	-7919
rating	-7920
schild	-7921
ußball	-7922
wimmen	-7923
üchern	-7924
üffelt	-7925
▁Apple	-7926
▁Biker	-7927
▁Board	-7928
▁Bälle	-7929
▁Durch	-7930
▁Engel	-7931
▁Kette	-7932
▁Köpfe	-7933
▁Linie	-7934
▁Nebel	-7935
▁Pizza	-7936
▁Pudel	-7937
▁Sicht	-7938
▁State	-7939
▁Türen	-7940
▁Welpe	-7941
▁altes	-7942
▁await	-7943
▁backd	-7944
▁blind	-7945
▁blood	-7946
▁brief	-7947
▁bräun	-7948
▁carts	-7949
▁cello	-7950
▁chess	-7951
▁colla	-7952
▁comes	-7953
▁crown	-7954
▁games	-7955
▁gefle	-7956
▁glänz	-7957
▁hotel	-7958
▁juice	-7959
▁knees	-7960
▁knien	-7961
▁knife	-7962
▁legen	-7963
▁lernt	-7964
▁movie	-7965
▁packt	-7966
▁prüft	-7967
▁purch	-7968
▁score	-7969
▁sides	-7970
▁sized	-7971
▁stare	-7972
▁staub	-7973
▁stock	-7974
▁stops	-7975
▁techn	-7976
▁wares	-7977
▁watet	-7978
▁wires	-7979
angehör	-7980
ational	-7981
attered	-7982
brocken	-7983
gehoben	-7984
gestrei	-7985
senting	-7986
spielen	-7987
station	-7988
öffnung	-7989
▁Anweis	-7990
▁Bambus	-7991
▁Banner	-7992
▁Booten	-7993
▁Clowns	-7994
▁Fänger	-7995
▁Hocker	-7996
▁Inline	-7997
▁Junger	-7998
▁Passag	-7999
▁Riksch	-8000
▁Schafe	-8001
▁School	-8002
▁Schuss	-8003
▁Turban	-8004
▁Werfer	-8005
▁bamboo	-8006
▁beanie	-8007
▁bricks	-8008
▁elektr	-8009
▁kayaks	-8010
▁manche	-8011
▁places	-8012
▁putzen	-8013
▁sauber	-8014
▁second	-8015
▁strugg	-8016
▁suchen	-8017
▁sweeps	-8018
▁tackle	-8019
▁türkis	-8020
▁umpire	-8021
▁verlet	-8022
▁vorder	-8023
amburger	-8024
bereiten	-8025
gebunden	-8026
geländer	-8027
klettern	-8028
ungspark	-8029
wegungen	-8030
▁America	-8031
▁Bahngle	-8032
▁Bandmit	-8033
▁Dreirad	-8034
▁Fitness	-8035
▁Fliesen	-8036
▁Geräten	-8037
▁Haltung	-8038
▁Hinterb	-8039
▁Jackett	-8040
▁Kellner	-8041
▁Knöpfen	-8042
▁Student	-8043
▁Vergnüg	-8044
▁Während	-8045
▁ansieht	-8046
▁boulder	-8047
▁chicken	-8048
▁dunklem	-8049
▁exhibit	-8050
▁filling	-8051
▁firemen	-8052
▁gebeugt	-8053
▁gehende	-8054
▁handing	-8055
▁heading	-8056
▁kümmert	-8057
▁langärm	-8058
▁paddeln	-8059
▁paddles	-8060
▁pillows	-8061
▁process	-8062
▁science	-8063
▁shadows	-8064
▁tossing	-8065
▁touches	-8066
▁tourist	-8067
▁trolley	-8068
▁vendors	-8069
▁waschen	-8070
▁wheelie	-8071
spielerin	-8072
▁Autobahn	-8073
▁Bewegung	-8074
▁Fischern	-8075
▁Freundin	-8076
▁Produkte	-8077
▁Schleife	-8078
▁Säugling	-8079
▁Trommeln	-8080
▁Tänzerin	-8081
▁alleyway	-8082
▁applying	-8083
▁aufgerei	-8084
▁aussehen	-8085
▁bagpipes	-8086
▁bemalten	-8087
▁blankets	-8088
▁clapping	-8089
▁complete	-8090
▁exercise	-8091
▁forehead	-8092
▁inspects	-8093
▁interess	-8094
▁lacrosse	-8095
▁monument	-8096
▁pigtails	-8097
▁sandigen	-8098
▁scaffold	-8099
▁schnitzt	-8100
▁scooters	-8101
▁suitcase	-8102
▁visiting	-8103
▁watermel	-8104
▁wrestler	-8105
▁Ballerina	-8106
▁Betonwand	-8107
▁Computern	-8108
▁Konferenz	-8109
▁McDonalds	-8110
▁Schüsseln	-8111
▁Wassermel	-8112
▁angeboten	-8113
▁attending	-8114
▁barfüßige	-8115
▁begleitet	-8116
▁beisammen	-8117
▁beverages	-8118
▁emergency	-8119
▁headdress	-8120
▁marinebla	-8121
▁paperwork	-8122
▁telephone	-8123
▁Asiatische	-8124
▁Breakdance	-8125
▁Gesichtern	-8126
▁Kunstwerke	-8127
▁Pfadfinder	-8128
▁Zahlreiche	-8129
▁aneinander	-8130
▁bystanders	-8131
▁geöffneten	-8132
▁glänzenden	-8133
▁gymnastics	-8134
▁newspapers	-8135
▁overweight	-8136
▁performers	-8137
instrumenten	-8138
mannschaften	-8139
▁Badeanzügen	-8140
▁Lieferwagen	-8141
▁Mitarbeiter	-8142
▁Schneeanzug	-8143
▁Spaziergang	-8144
▁Sprungbrett	-8145
▁Treppenhaus	-8146
▁Tätowierung	-8147
▁Waschbecken	-8148
▁celebration	-8149
▁countryside	-8150
▁gepunkteten	-8151
▁gestreifter	-8152
▁herumstehen	-8153
▁merchandise	-8154
▁spielerisch	-8155
▁verschneite	-8156
▁Namensschild	-8157
▁Schwimmweste	-8158
▁Tarnkleidung	-8159
▁Mountainbiker	-8160
▁Treppenstufen	-8161
▁Tätowierungen	-8162
▁Feuerwehrleute	-8163
▁Heißluftballon	-8164
▁Trainingsanzug	-8165
▁traditionellen	-8166
▁Vergnügungspark	-8167
CE	-8168
kn	-8169
ky	-8170
äg	-8171
abl	-8172
arp	-8173
bol	-8174
con	-8175
ees	-8176
ehn	-8177
ero	-8178
gef	-8179
gra	-8180
hom	-8181
hop	-8182
mal	-8183
mpf	-8184
rid	-8185
rün	-8186
urz	-8187
vil	-8188
▁TV	-8189
▁ax	-8190
▁ga	-8191
▁id	-8192
▁wa	-8193
▁Üb	-8194
arth	-8195
asen	-8196
cake	-8197
elbe	-8198
eled	-8199
elte	-8200
fert	-8201
flie	-8202
gery	-8203
heke	-8204
idel	-8205
igan	-8206
iped	-8207
kopf	-8208
lück	-8209
onch	-8210
otiv	-8211
pids	-8212
rate	-8213
reis	-8214
toff	-8215
uing	-8216
unte	-8217
ziel	-8218
zing	-8219
ünst	-8220
ützt	-8221
▁Ang	-8222
▁Bas	-8223
▁Del	-8224
▁Eim	-8225
▁Fed	-8226
▁Ged	-8227
▁Hab	-8228
▁Rah	-8229
▁Zyl	-8230
▁bec	-8231
▁chr	-8232
▁dah	-8233
▁erw	-8234
▁hut	-8235
▁ill	-8236
▁joy	-8237
▁jud	-8238
▁mug	-8239
▁pig	-8240
▁rag	-8241
▁rif	-8242
▁säu	-8243
▁tas	-8244
▁tea	-8245
▁ter	-8246
▁tex	-8247
▁tux	-8248
▁umr	-8249
▁val	-8250
▁vic	-8251
▁zwe	-8252
ately	-8253
auert	-8254
dozer	-8255
ersby	-8256
feuer	-8257
genen	-8258
gnügt	-8259
iefel	-8260
illed	-8261
ising	-8262
itzer	-8263
mäher	-8264
oogie	-8265
plies	-8266
press	-8267
rench	-8268
räger	-8269
ummel	-8270
uquet	-8271
wheel	-8272
ymbol	-8273
üllen	-8274
▁Auge	-8275
▁Beam	-8276
▁Brit	-8277
▁Chef	-8278
▁Dirt	-8279
▁Dock	-8280
▁Form	-8281
▁Herz	-8282
▁Horn	-8283
▁Lass	-8284
▁Obje	-8285
▁Reis	-8286
▁Rode	-8287
▁Rohr	-8288
▁Runn	-8289
▁Vert	-8290
▁Woll	-8291
▁bank	-8292
▁berg	-8293
▁cans	-8294
▁case	-8295
▁eben	-8296
▁elev	-8297
▁fern	-8298
▁fort	-8299
▁hart	-8300
▁hohe	-8301
▁krat	-8302
▁lear	-8303
▁lens	-8304
▁logs	-8305
▁meas	-8306
▁pock	-8307
▁rice	-8308
▁rost	-8309
▁rund	-8310
▁rust	-8311
▁serv	-8312
▁skin	-8313
▁soap	-8314
▁soda	-8315
▁soll	-8316
▁stir	-8317
▁text	-8318
▁tiny	-8319
▁trau	-8320
▁tray	-8321
▁trom	-8322
▁unus	-8323
▁verh	-8324
▁verm	-8325
▁weap	-8326
▁weil	-8327
▁yarn	-8328
Outfit	-8329
arbiet	-8330
ckigen	-8331
ensive	-8332
ischem	-8333
orning	-8334
quoise	-8335
roffen	-8336
rägern	-8337
rücken	-8338
weißes	-8339
werker	-8340
ärlich	-8341
▁Alter	-8342
▁Apfel	-8343
▁Babys	-8344
▁Dress	-8345
▁Gehen	-8346
▁Helme	-8347
▁Kante	-8348
▁Kerle	-8349
▁Maler	-8350
▁Miami	-8351
▁Music	-8352
▁Möbel	-8353
▁Netze	-8354
▁Paare	-8355
▁Stahl	-8356
▁Tiere	-8357
▁Urein	-8358
▁Waffe	-8359
▁Wette	-8360
▁abgeb	-8361
▁banjo	-8362
▁blaug	-8363
▁cheek	-8364
▁creek	-8365
▁diese	-8366
▁diver	-8367
▁dives	-8368
▁dusty	-8369
▁eight	-8370
▁falls	-8371
▁gespr	-8372
▁hoher	-8373
▁indem	-8374
▁knall	-8375
▁lifts	-8376
▁mower	-8377
▁opens	-8378
▁picks	-8379
▁polit	-8380
▁range	-8381
▁rings	-8382
▁ruhen	-8383
▁salon	-8384
▁scoop	-8385
▁separ	-8386
▁spark	-8387
▁speak	-8388
▁stößt	-8389
▁treat	-8390
▁unord	-8391
▁übers	-8392
▁überw	-8393
bändern	-8394
ehrauto	-8395
eingang	-8396
fenster	-8397
ingpool	-8398
leidung	-8399
ommenen	-8400
ständer	-8401
unehmen	-8402
▁Batman	-8403
▁Erzeug	-8404
▁Fabrik	-8405
▁Female	-8406
▁Freude	-8407
▁Geschw	-8408
▁Gleich	-8409
▁Gürtel	-8410
▁Imbiss	-8411
▁Karton	-8412
▁Katzen	-8413
▁Kragen	-8414
▁Kürbis	-8415
▁Muster	-8416
▁Perlen	-8417
▁Police	-8418
▁Rahmen	-8419
▁Redner	-8420
▁Schein	-8421
▁Shirts	-8422
▁Sports	-8423
▁Stöcke	-8424
▁Säulen	-8425
▁arcade	-8426
▁arrang	-8427
▁assemb	-8428
▁assist	-8429
▁attack	-8430
▁ballet	-8431
▁belong	-8432
▁bietet	-8433
▁biting	-8434
▁contra	-8435
▁covers	-8436
▁dritte	-8437
▁drückt	-8438
▁farmer	-8439
▁floats	-8440
▁folded	-8441
▁headed	-8442
▁khakis	-8443
▁larger	-8444
▁lifted	-8445
▁medium	-8446
▁placed	-8447
▁rapids	-8448
▁retrie	-8449
▁return	-8450
▁rudern	-8451
▁serves	-8452
▁skiers	-8453
▁thumbs	-8454
▁tights	-8455
▁verste	-8456
American	-8457
astanien	-8458
behälter	-8459
eglasses	-8460
enschwes	-8461
farbigen	-8462
genommen	-8463
kollegen	-8464
oberteil	-8465
unkelten	-8466
▁Asphalt	-8467
▁Bearded	-8468
▁Einsatz	-8469
▁Eiswaff	-8470
▁Fischen	-8471
▁Früchte	-8472
▁Gläsern	-8473
▁Kaffeet	-8474
▁Laptops	-8475
▁Liegest	-8476
▁Plüscht	-8477
▁Rettung	-8478
▁Runners	-8479
▁Scheibe	-8480
▁Smoking	-8481
▁Stammes	-8482
▁Strumpf	-8483
▁Tablett	-8484
▁acrobat	-8485
▁besteht	-8486
▁camping	-8487
▁closely	-8488
▁constru	-8489
▁cowboys	-8490
▁crossed	-8491
▁descent	-8492
▁focused	-8493
▁gathers	-8494
▁gemacht	-8495
▁highway	-8496
▁lantern	-8497
▁lighted	-8498
▁oranger	-8499
▁paralle	-8500
▁placing	-8501
▁puppies	-8502
▁sammeln	-8503
▁schwebt	-8504
▁skaters	-8505
▁strange	-8506
▁surgery	-8507
▁treiben	-8508
▁visible	-8509
▁watched	-8510
▁wirbelt	-8511
arbietung	-8512
bedeckten	-8513
schriften	-8514
vorsprung	-8515
▁Anhänger	-8516
▁Eiscreme	-8517
▁Holzbank	-8518
▁Händchen	-8519
▁Lacrosse	-8520
▁Monopoly	-8521
▁Picknick	-8522
▁Telefonz	-8523
▁Webstuhl	-8524
▁Zylinder	-8525
▁accompan	-8526
▁athletes	-8527
▁backdrop	-8528
▁chatting	-8529
▁gehender	-8530
▁handrail	-8531
▁homeless	-8532
▁involved	-8533
▁learning	-8534
▁location	-8535
▁multiple	-8536
▁planting	-8537
▁ponytail	-8538
▁serviert	-8539
▁sunlight	-8540
▁supplies	-8541
▁tackling	-8542
▁tricycle	-8543
▁vergnügt	-8544
▁verteilt	-8545
ansammlung	-8546
▁Eisenbahn	-8547
▁Karussell	-8548
▁Obststand	-8549
▁Rollschuh	-8550
▁adjusting	-8551
▁carefully	-8552
▁christmas	-8553
▁formation	-8554
▁gefüllten	-8555
▁kleineren	-8556
▁magazines	-8557
▁motorized	-8558
▁möglicher	-8559
▁parachute	-8560
▁passenden	-8561
▁patterned	-8562
▁playfully	-8563
▁practices	-8564
▁repairing	-8565
▁rückwärts	-8566
▁schreiben	-8567
▁schütteln	-8568
▁screaming	-8569
▁seltsamen	-8570
▁shoreline	-8571
▁snowshoes	-8572
▁swimsuits	-8573
▁traveling	-8574
▁turquoise	-8575
▁underwear	-8576
▁örtlichen	-8577
▁Brettspiel	-8578
▁Fußgängern	-8579
▁Schlagmann	-8580
▁Teilnehmer	-8581
▁Türöffnung	-8582
▁Untergrund	-8583
▁abgestellt	-8584
▁abgeworfen	-8585
▁auditorium	-8586
▁bekleidete	-8587
▁chalkboard	-8588
▁gesprungen	-8589
▁laundromat	-8590
▁männlichen	-8591
▁reflection	-8592
▁reflektier	-8593
▁suspenders	-8594
▁Hockeyspiel	-8595
▁Kleinkinder	-8596
▁Laborkittel	-8597
▁Turnschuhen	-8598
▁Ureinwohner	-8599
▁Vorderseite	-8600
▁Wasserspren	-8601
▁bekleideter	-8602
▁firefighter	-8603
▁flauschiger	-8604
▁geschnitten	-8605
▁hellhäutige	-8606
▁japanischen	-8607
▁leuchtenden	-8608
▁präsentiert	-8609
▁Fußballdress	-8610
▁Gegenständen	-8611
▁Geländewagen	-8612
▁Jugendlichen	-8613
▁Schlauchboot	-8614
▁pinkfarbener	-8615
▁Krankenschwes	-8616
▁Lebensmitteln	-8617
▁Pferdeschwanz	-8618
▁Wasserrutsche	-8619
▁braunhaariger	-8620
▁langärmeligen	-8621
▁motorcyclists	-8622
▁orientalische	-8623
▁rollerblading	-8624
▁rollerskating	-8625
▁transportiert	-8626
▁Einkaufstasche	-8627
▁Marathonläufer	-8628
▁möglicherweise	-8629
▁silberfarbenen	-8630
▁Beachvolleyball	-8631
Tr	-8632
po	-8633
zw	-8634
Bob	-8635
ari	-8636
aup	-8637
ebo	-8638
ehm	-8639
fig	-8640
ham	-8641
ieh	-8642
imp	-8643
ixt	-8644
ize	-8645
kol	-8646
lac	-8647
lly	-8648
met	-8649
oke	-8650
ota	-8651
pfl	-8652
phy	-8653
rät	-8654
ted	-8655
tra	-8656
vas	-8657
zin	-8658
äte	-8659
▁Pi	-8660
▁Tö	-8661
▁We	-8662
▁kl	-8663
▁my	-8664
▁ox	-8665
▁ut	-8666
▁vö	-8667
Cola	-8668
ackt	-8669
ague	-8670
anen	-8671
arat	-8672
arfe	-8673
beln	-8674
cont	-8675
enue	-8676
flip	-8677
horn	-8678
iene	-8679
ifft	-8680
ints	-8681
iosk	-8682
isse	-8683
kann	-8684
llig	-8685
loss	-8686
nett	-8687
netz	-8688
olke	-8689
olog	-8690
riot	-8691
robe	-8692
roke	-8693
saug	-8694
ston	-8695
uble	-8696
usky	-8697
utzt	-8698
ware	-8699
wart	-8700
▁Axt	-8701
▁Bag	-8702
▁Bro	-8703
▁Cro	-8704
▁Des	-8705
▁Hör	-8706
▁Lat	-8707
▁Lim	-8708
▁Mem	-8709
▁Var	-8710
▁aim	-8711
▁dun	-8712
▁fac	-8713
▁fat	-8714
▁fed	-8715
▁lip	-8716
▁rei	-8717
▁rug	-8718
▁sam	-8719
▁tor	-8720
▁uns	-8721
▁wad	-8722
▁wel	-8723
▁wen	-8724
abies	-8725
agull	-8726
ahlen	-8727
ashes	-8728
ature	-8729
bbing	-8730
blick	-8731
elzen	-8732
ently	-8733
ering	-8734
gress	-8735
ifier	-8736
igner	-8737
ipper	-8738
ivity	-8739
lafen	-8740
lampe	-8741
lined	-8742
oftop	-8743
oseup	-8744
punkt	-8745
rünen	-8746
ssaal	-8747
stock	-8748
szene	-8749
ucken	-8750
where	-8751
▁Acht	-8752
▁Army	-8753
▁Asia	-8754
▁Coup	-8755
▁Eier	-8756
▁Ente	-8757
▁Esst	-8758
▁Früh	-8759
▁Garn	-8760
▁Gest	-8761
▁Heim	-8762
▁Herk	-8763
▁Hier	-8764
▁Hood	-8765
▁Kauf	-8766
▁Kick	-8767
▁Lich	-8768
▁Ofen	-8769
▁Post	-8770
▁Rosa	-8771
▁Sieg	-8772
▁Turm	-8773
▁abzu	-8774
▁bock	-8775
▁cage	-8776
▁camp	-8777
▁cute	-8778
▁done	-8779
▁einf	-8780
▁erho	-8781
▁fell	-8782
▁flas	-8783
▁fork	-8784
▁gaze	-8785
▁goat	-8786
▁here	-8787
▁hike	-8788
▁kilt	-8789
▁lack	-8790
▁lass	-8791
▁lauf	-8792
▁lean	-8793
▁mind	-8794
▁news	-8795
▁pins	-8796
▁pots	-8797
▁rows	-8798
▁sque	-8799
▁stap	-8800
▁than	-8801
▁trot	-8802
▁whom	-8803
alerie	-8804
aulust	-8805
blickt	-8806
bürste	-8807
enaiss	-8808
enschn	-8809
feuert	-8810
froren	-8811
gitter	-8812
graben	-8813
ierung	-8814
igning	-8815
iously	-8816
istert	-8817
jacken	-8818
kuchen	-8819
ochten	-8820
reicht	-8821
reiter	-8822
risten	-8823
sachen	-8824
schein	-8825
statue	-8826
stelle	-8827
sticks	-8828
treppe	-8829
äumten	-8830
▁Banjo	-8831
▁Boxer	-8832
▁Canad	-8833
▁Cello	-8834
▁Fecht	-8835
▁Feder	-8836
▁Firef	-8837
▁Gemüs	-8838
▁Gummi	-8839
▁Herrn	-8840
▁Kasse	-8841
▁Lasso	-8842
▁Mülle	-8843
▁Nagel	-8844
▁Pfeil	-8845
▁Pilot	-8846
▁Puppe	-8847
▁Richt	-8848
▁Sprüh	-8849
▁Stern	-8850
▁Stunt	-8851
▁Säule	-8852
▁Volks	-8853
▁Zebra	-8854
▁abges	-8855
▁belts	-8856
▁cards	-8857
▁coast	-8858
▁cooks	-8859
▁deren	-8860
▁domin	-8861
▁filmt	-8862
▁formt	-8863
▁furry	-8864
▁gazes	-8865
▁inner	-8866
▁jeder	-8867
▁jewei	-8868
▁kunst	-8869
▁kurze	-8870
▁laden	-8871
▁ließt	-8872
▁lobby	-8873
▁maneu	-8874
▁march	-8875
▁moder	-8876
▁quiet	-8877
▁rally	-8878
▁serve	-8879
▁shape	-8880
▁staff	-8881
▁stall	-8882
▁stolz	-8883
▁stoop	-8884
▁story	-8885
▁tread	-8886
▁twirl	-8887
▁venue	-8888
Scheibe	-8889
erinnen	-8890
estrian	-8891
fernung	-8892
icopter	-8893
ination	-8894
konzert	-8895
kulptur	-8896
ongeBob	-8897
rations	-8898
tenance	-8899
vention	-8900
viertel	-8901
▁Aufzug	-8902
▁Bootes	-8903
▁Eimern	-8904
▁Frisur	-8905
▁Klasse	-8906
▁Körben	-8907
▁Mohawk	-8908
▁Obdach	-8909
▁Partie	-8910
▁Schaum	-8911
▁Schnur	-8912
▁Tracht	-8913
▁Unfall	-8914
▁Versch	-8915
▁Zucker	-8916
▁amidst	-8917
▁autumn	-8918
▁bewald	-8919
▁blazer	-8920
▁boards	-8921
▁candle	-8922
▁canvas	-8923
▁cheese	-8924
▁erhält	-8925
▁fischt	-8926
▁frozen	-8927
▁harmon	-8928
▁hiding	-8929
▁huddle	-8930
▁indust	-8931
▁inform	-8932
▁kauert	-8933
▁kratzt	-8934
▁kurzem	-8935
▁mischt	-8936
▁monkey	-8937
▁motion	-8938
▁namens	-8939
▁nasser	-8940
▁oberen	-8941
▁played	-8942
▁racers	-8943
▁regner	-8944
▁seicht	-8945
▁single	-8946
▁skater	-8947
▁stilts	-8948
▁ticket	-8949
▁tribal	-8950
▁trifft	-8951
▁tripod	-8952
▁trucks	-8953
▁turned	-8954
▁upward	-8955
▁valley	-8956
▁walked	-8957
▁washes	-8958
Geschäft	-8959
Kleidung	-8960
klettert	-8961
pielzeug	-8962
sprecher	-8963
zeichnet	-8964
▁Ballett	-8965
▁Bildern	-8966
▁British	-8967
▁Closeup	-8968
▁Elderly	-8969
▁Gleisen	-8970
▁Jockeys	-8971
▁Kostüme	-8972
▁Pflanze	-8973
▁Rikscha	-8974
▁Schrift	-8975
▁Seattle	-8976
▁Sooners	-8977
▁Stelzen	-8978
▁Strands	-8979
▁Stöcken	-8980
▁Theater	-8981
▁Tomaten	-8982
▁Verteid	-8983
▁artwork	-8984
▁blocken	-8985
▁bouquet	-8986
▁brother	-8987
▁brünett	-8988
▁burning	-8989
▁butcher	-8990
▁couples	-8991
▁eastern	-8992
▁fischen	-8993
▁fremden	-8994
▁gallery	-8995
▁gefolgt	-8996
▁gesehen	-8997
▁incline	-8998
▁injured	-8999
▁juggles	-9000
▁leotard	-9001
▁löschen	-9002
▁medizin	-9003
▁meisten	-9004
▁militär	-9005
▁monitor	-9006
▁numbers	-9007
▁printed	-9008
▁quickly	-9009
▁rafting	-9010
▁rooftop	-9011
▁scarves	-9012
▁schneit	-9013
▁section	-9014
▁sprayed	-9015
▁support	-9016
▁verschw	-9017
▁workout	-9018
▁überall	-9019
ellschaft	-9020
etterling	-9021
spielzeug	-9022
uniformen	-9023
zeichnung	-9024
▁Aussicht	-9025
▁Demonstr	-9026
▁Erdhügel	-9027
▁Herkunft	-9028
▁Holzzaun	-9029
▁Laternen	-9030
▁Leggings	-9031
▁Leinwand	-9032
▁Olympics	-9033
▁Overalls	-9034
▁Rücksitz	-9035
▁Schotter	-9036
▁activity	-9037
▁amüsiert	-9038
▁branches	-9039
▁casually	-9040
▁chopping	-9041
▁collared	-9042
▁creating	-9043
▁crouched	-9044
▁displays	-9045
▁driveway	-9046
▁elektron	-9047
▁facility	-9048
▁fröhlich	-9049
▁gemuster	-9050
▁größeren	-9051
▁jüngerer	-9052
▁kayaking	-9053
▁leggings	-9054
▁lighting	-9055
▁portrait	-9056
▁products	-9057
▁roadside	-9058
▁rutschen	-9059
▁schminkt	-9060
▁shepherd	-9061
▁sideways	-9062
▁spärlich	-9063
▁stepping	-9064
▁strecken	-9065
▁toddlers	-9066
▁trashcan	-9067
▁workshop	-9068
enaissance	-9069
▁Dämmerung	-9070
▁Halskette	-9071
▁Holzboden	-9072
▁Maschinen	-9073
▁Mülleimer	-9074
▁Rückseite	-9075
▁Schaulust	-9076
▁Stromschn	-9077
▁Transport	-9078
▁Ziellinie	-9079
▁burgunder	-9080
▁celebrate	-9081
▁earphones	-9082
▁ebenfalls	-9083
▁embracing	-9084
▁erklimmen	-9085
▁finishing	-9086
▁highchair	-9087
▁involving	-9088
▁liegenden	-9089
▁niedrigen	-9090
▁passersby	-9091
▁staubigen	-9092
▁streichen	-9093
▁verbunden	-9094
▁verwenden	-9095
▁wakeboard	-9096
ausstellung	-9097
entlichkeit	-9098
▁Entfernung	-9099
▁Experiment	-9100
▁Handschuhe	-9101
▁Klappstuhl	-9102
▁Lagerfeuer	-9103
▁Landstraße	-9104
▁Motorhaube	-9105
▁Richtungen	-9106
▁Spectators	-9107
▁Ziegelwand	-9108
▁abgebildet	-9109
▁angebracht	-9110
▁approaches	-9111
▁aufgereiht	-9112
▁begeistert	-9113
▁decorative	-9114
▁department	-9115
▁displaying	-9116
▁experiment	-9117
▁fliegenden	-9118
▁lächelnden	-9119
▁männliches	-9120
▁silhouette	-9121
▁Bergsteiger	-9122
▁Erzeugnisse	-9123
▁Essensstand	-9124
▁Fahrradhelm	-9125
▁Gitarristen	-9126
▁Pedestrians	-9127
▁Schulkinder	-9128
▁Unterwäsche	-9129
▁Vorrichtung	-9130
▁contraption	-9131
▁heruntergek	-9132
▁interesting	-9133
▁quarterback	-9134
▁Freizeitpark	-9135
▁Präsentation	-9136
▁Swimmingpool	-9137
▁festgebunden	-9138
▁regnerischen	-9139
▁unterrichtet	-9140
▁wunderschöne	-9141
▁Felsvorsprung	-9142
▁Schmetterling	-9143
▁Schneeschuhen	-9144
▁Ziegelsteinen	-9145
▁afrikanischen	-9146
▁eingeschlafen	-9147
▁Schutzkleidung	-9148
▁schwarzhaarige	-9149
▁transportation	-9150
▁ungewöhnlichen	-9151
▁unordentlichen	-9152
▁Öffentlichkeit	-9153
▁übergewichtiger	-9154
ae	-9155
iö	-9156
▁,	-9157
Aus	-9158
azz	-9159
car	-9160
eme	-9161
ffe	-9162
fly	-9163
fol	-9164
ibr	-9165
pie	-9166
rah	-9167
ray	-9168
sol	-9169
uds	-9170
uhr	-9171
wed	-9172
wir	-9173
wür	-9174
yro	-9175
üge	-9176
ült	-9177
▁12	-9178
▁Cr	-9179
▁Je	-9180
▁Pe	-9181
▁du	-9182
▁mü	-9183
denk	-9184
dles	-9185
ebeb	-9186
elin	-9187
ened	-9188
enna	-9189
erie	-9190
fält	-9191
gabe	-9192
hack	-9193
hoch	-9194
htub	-9195
häus	-9196
ined	-9197
inet	-9198
ises	-9199
ität	-9200
izes	-9201
laub	-9202
mitt	-9203
most	-9204
ongo	-9205
ores	-9206
osed	-9207
oses	-9208
pect	-9209
pert	-9210
rabb	-9211
riff	-9212
vest	-9213
wear	-9214
zone	-9215
äsch	-9216
öhre	-9217
ühne	-9218
ünen	-9219
▁ATM	-9220
▁Aqu	-9221
▁Bic	-9222
▁Cal	-9223
▁Com	-9224
▁Day	-9225
▁Dig	-9226
▁Din	-9227
▁Eas	-9228
▁Get	-9229
▁Jet	-9230
▁Kit	-9231
▁Mön	-9232
▁Pak	-9233
▁Piz	-9234
▁Pop	-9235
▁San	-9236
▁Ser	-9237
▁Tro	-9238
▁Zuh	-9239
▁Zus	-9240
▁ado	-9241
▁amo	-9242
▁bzw	-9243
▁dol	-9244
▁ess	-9245
▁est	-9246
▁icy	-9247
▁jed	-9248
▁kom	-9249
▁lim	-9250
▁mex	-9251
▁mur	-9252
▁pay	-9253
▁pow	-9254
▁say	-9255
▁shr	-9256
▁unh	-9257
▁wol	-9258
Derby	-9259
aften	-9260
ainer	-9261
aling	-9262
ampag	-9263
anken	-9264
antly	-9265
atoes	-9266
cakes	-9267
chsen	-9268
craft	-9269
elfer	-9270
gaben	-9271
hause	-9272
iesch	-9273
kohol	-9274
kreuz	-9275
lasen	-9276
legen	-9277
obile	-9278
olfen	-9279
onnen	-9280
oring	-9281
ossen	-9282
pielt	-9283
stall	-9284
ücher	-9285
ündet	-9286
▁Bark	-9287
▁Bege	-9288
▁Body	-9289
▁Grau	-9290
▁Jack	-9291
▁Knie	-9292
▁Lade	-9293
▁Lots	-9294
▁Mais	-9295
▁Nike	-9296
▁Palm	-9297
▁Reit	-9298
▁Skil	-9299
▁Span	-9300
▁Temp	-9301
▁Text	-9302
▁Walk	-9303
▁army	-9304
▁bell	-9305
▁bush	-9306
▁chin	-9307
▁choc	-9308
▁cott	-9309
▁dest	-9310
▁dive	-9311
▁fein	-9312
▁förm	-9313
▁jogs	-9314
▁late	-9315
▁menu	-9316
▁miss	-9317
▁mäht	-9318
▁pads	-9319
▁pale	-9320
▁pres	-9321
▁quad	-9322
▁raus	-9323
▁riot	-9324
▁sees	-9325
▁shaw	-9326
▁shel	-9327
▁sprü	-9328
▁styl	-9329
▁tail	-9330
▁task	-9331
▁unlo	-9332
▁vide	-9333
▁wahr	-9334
▁weig	-9335
▁wett	-9336
becher	-9337
coming	-9338
estern	-9339
fernen	-9340
friend	-9341
garten	-9342
geschä	-9343
gnügen	-9344
halten	-9345
imonos	-9346
itzern	-9347
kommen	-9348
kräfte	-9349
mertag	-9350
mützen	-9351
objekt	-9352
oodles	-9353
putzer	-9354
rieben	-9355
school	-9356
schung	-9357
schutz	-9358
ucking	-9359
utscht	-9360
wander	-9361
äbchen	-9362
äufern	-9363
öpfige	-9364
▁Ampel	-9365
▁Betra	-9366
▁Blech	-9367
▁Block	-9368
▁Draht	-9369
▁Eight	-9370
▁Fahrg	-9371
▁Felsk	-9372
▁Gabel	-9373
▁Glast	-9374
▁Green	-9375
▁Inder	-9376
▁Kraft	-9377
▁Lampe	-9378
▁Lokal	-9379
▁Notiz	-9380
▁Plate	-9381
▁Profi	-9382
▁Repar	-9383
▁Röhre	-9384
▁Schaf	-9385
▁Schok	-9386
▁Speer	-9387
▁Video	-9388
▁Weing	-9389
▁Zauns	-9390
▁aband	-9391
▁akust	-9392
▁bends	-9393
▁beret	-9394
▁boxen	-9395
▁brass	-9396
▁built	-9397
▁daran	-9398
▁darin	-9399
▁ducks	-9400
▁every	-9401
▁fasst	-9402
▁grabs	-9403
▁gradu	-9404
▁grasp	-9405
▁grins	-9406
▁hills	-9407
▁hohes	-9408
▁holen	-9409
▁human	-9410
▁medit	-9411
▁mount	-9412
▁neong	-9413
▁nächt	-9414
▁offer	-9415
▁olymp	-9416
▁overs	-9417
▁pilot	-9418
▁rifle	-9419
▁seich	-9420
▁shiny	-9421
▁sicht	-9422
▁sidel	-9423
▁smoot	-9424
▁spect	-9425
▁squee	-9426
▁stump	-9427
▁surfs	-9428
▁teens	-9429
▁tiled	-9430
▁tooth	-9431
▁torch	-9432
▁types	-9433
▁verbr	-9434
▁waist	-9435
▁würde	-9436
▁überd	-9437
eichnen	-9438
ishment	-9439
köpfige	-9440
ränkten	-9441
springt	-9442
striped	-9443
ternoon	-9444
umbling	-9445
▁Adults	-9446
▁Ballet	-9447
▁Betonp	-9448
▁Bildes	-9449
▁Blasen	-9450
▁Bruder	-9451
▁Couple	-9452
▁Disney	-9453
▁Dunkel	-9454
▁Fische	-9455
▁Großer	-9456
▁Holzst	-9457
▁Hoodie	-9458
▁Kneipe	-9459
▁Lampen	-9460
▁Leucht	-9461
▁Morgen	-9462
▁Native	-9463
▁Platte	-9464
▁Sattel	-9465
▁Sessel	-9466
▁Spider	-9467
▁Stativ	-9468
▁Studio	-9469
▁Wolken	-9470
▁almost	-9471
▁aprons	-9472
▁begins	-9473
▁bindet	-9474
▁booths	-9475
▁cherry	-9476
▁clouds	-9477
▁clowns	-9478
▁crates	-9479
▁diesen	-9480
▁divers	-9481
▁establ	-9482
▁fishes	-9483
▁freien	-9484
▁füllen	-9485
▁gazing	-9486
▁heller	-9487
▁hervor	-9488
▁images	-9489
▁jumped	-9490
▁jumper	-9491
▁klaren	-9492
▁muskul	-9493
▁muzzle	-9494
▁pencil	-9495
▁pinata	-9496
▁preten	-9497
▁really	-9498
▁sawing	-9499
▁scenic	-9500
▁schmet	-9501
▁scient	-9502
▁scouts	-9503
▁steile	-9504
▁stürzt	-9505
▁trench	-9506
▁turban	-9507
▁unique	-9508
▁völlig	-9509
▁warmen	-9510
▁weight	-9511
▁wieder	-9512
▁writes	-9513
▁öffent	-9514
ementary	-9515
isterung	-9516
werkzeug	-9517
▁Brillen	-9518
▁Camping	-9519
▁Concert	-9520
▁Feuerst	-9521
▁Flusses	-9522
▁Flügeln	-9523
▁Kartons	-9524
▁Nachbar	-9525
▁Pferder	-9526
▁Rennens	-9527
▁Smiling	-9528
▁adjusts	-9529
▁angesch	-9530
▁anhaben	-9531
▁bathtub	-9532
▁bedroom	-9533
▁besucht	-9534
▁brushes	-9535
▁chinese	-9536
▁cleaner	-9537
▁concent	-9538
▁designs	-9539
▁dritter	-9540
▁foliage	-9541
▁gesenkt	-9542
▁heavily	-9543
▁horizon	-9544
▁hübsche	-9545
▁illumin	-9546
▁jeweils	-9547
▁located	-9548
▁morning	-9549
▁painter	-9550
▁parents	-9551
▁pathway	-9552
▁peeking	-9553
▁pumpkin	-9554
▁schützt	-9555
▁seagull	-9556
▁sorting	-9557
▁special	-9558
▁stacked	-9559
▁strolls	-9560
▁tending	-9561
▁umgedre	-9562
▁umringt	-9563
▁unglück	-9564
▁unhappy	-9565
▁unteren	-9566
▁ähnlich	-9567
enschnitt	-9568
indigkeit	-9569
ähnlichen	-9570
▁Aufnahme	-9571
▁Canadian	-9572
▁Eiswagen	-9573
▁Fenstern	-9574
▁Karohemd	-9575
▁Laufbahn	-9576
▁Mitglied	-9577
▁Parcours	-9578
▁Schürzen	-9579
▁Verkehrs	-9580
▁angemalt	-9581
▁bedienen	-9582
▁betreten	-9583
▁bouncing	-9584
▁checkers	-9585
▁circular	-9586
▁dahinter	-9587
▁dragging	-9588
▁dribbelt	-9589
▁dumpster	-9590
▁gefangen	-9591
▁gelangen	-9592
▁gespannt	-9593
▁grabbing	-9594
▁hübschen	-9595
▁operates	-9596
▁parallel	-9597
▁passiert	-9598
▁raincoat	-9599
▁schlecht	-9600
▁schützen	-9601
▁seichten	-9602
▁sniffing	-9603
▁sparring	-9604
▁spaziert	-9605
▁tagsüber	-9606
▁vorführt	-9607
▁waterski	-9608
▁weiteren	-9609
Basketball	-9610
rennfahrer	-9611
wettbewerb	-9612
zuklettern	-9613
▁Brautjung	-9614
▁Fahrzeuge	-9615
▁Flipflops	-9616
▁Flussufer	-9617
▁Hamburger	-9618
▁Patienten	-9619
▁Pullunder	-9620
▁Schachtel	-9621
▁Spazierst	-9622
▁SpongeBob	-9623
▁afternoon	-9624
▁bestellen	-9625
▁bicycling	-9626
▁butterfly	-9627
▁caucasian	-9628
▁chocolate	-9629
▁displayed	-9630
▁entfernen	-9631
▁erhobenen	-9632
▁erreichen	-9633
▁featuring	-9634
▁formeller	-9635
▁gesturing	-9636
▁getroffen	-9637
▁kastanien	-9638
▁recording	-9639
▁schaukeln	-9640
▁schwingen	-9641
▁vergnügen	-9642
▁Betrachter	-9643
▁Darbietung	-9644
▁Oberfläche	-9645
▁Plüschtier	-9646
▁Tanzfläche	-9647
▁University	-9648
▁angehalten	-9649
▁attraktive	-9650
▁ausgezogen	-9651
▁bedruckten	-9652
▁befahrenen	-9653
▁beleuchtet	-9654
▁belongings	-9655
▁bewaldeten	-9656
▁cellphones	-9657
▁chopsticks	-9658
▁containing	-9659
▁enthusiast	-9660
▁helicopter	-9661
▁presenting	-9662
▁schlendert	-9663
▁teilnehmen	-9664
▁tätowierte	-9665
▁verzierten	-9666
▁überprüfen	-9667
▁Ausstellung	-9668
▁Bauernmarkt	-9669
▁Felsbrocken	-9670
▁Fischernetz	-9671
▁Kopfschmuck	-9672
▁Musikgruppe	-9673
▁Nachrichten	-9674
▁Quarterback	-9675
▁Rasenfläche	-9676
▁Regenmantel	-9677
▁Skateboards	-9678
▁Spiegelbild	-9679
▁Steintreppe	-9680
▁Straßenfest	-9681
▁Tennisplatz	-9682
▁angezogener	-9683
▁aussehendes	-9684
▁decorations	-9685
▁parasailing	-9686
▁protestiert	-9687
▁schlammigen	-9688
▁Außenbereich	-9689
▁Begeisterung	-9690
▁Hinterbeinen	-9691
▁Konstruktion	-9692
▁Neugeborenes	-9693
▁Reklametafel	-9694
▁Scheinwerfer	-9695
▁Straßenseite	-9696
▁Wasserfläche	-9697
▁breakdancing	-9698
▁elektrischen	-9699
▁erleuchteten	-9700
▁orientalisch	-9701
▁rollerblades	-9702
▁wissenschaft	-9703
▁Einkaufstüten	-9704
▁Feuerwehrauto	-9705
▁Footballspiel	-9706
▁Fußballtrikot	-9707
▁Kampfsportler	-9708
▁Verkaufsstand	-9709
▁Zeitschriften	-9710
▁Straßenmusiker	-9711
▁Stromschnellen	-9712
▁amerikanischer	-9713
▁orangefarbenes	-9714
▁schneebedeckte	-9715
▁Geschwindigkeit	-9716
▁Irokesenschnitt	-9717
▁Kapuzenpullover	-9718
▁Straßenarbeiter	-9719
▁schneebedecktes	-9720
An	-9721
MC	-9722
ii	-9723
rd	-9724
üm	-9725
▁X	-9726
▁x	-9727
Aid	-9728
aha	-9729
aph	-9730
bot	-9731
bär	-9732
cep	-9733
fle	-9734
hre	-9735
hte	-9736
irä	-9737
ogo	-9738
oms	-9739
onn	-9740
oos	-9741
pos	-9742
ppe	-9743
pur	-9744
res	-9745
rig	-9746
rob	-9747
ski	-9748
ued	-9749
uhn	-9750
uld	-9751
ura	-9752
zel	-9753
ähe	-9754
▁30	-9755
▁Ir	-9756
▁OP	-9757
▁SU	-9758
▁Uf	-9759
▁pf	-9760
Band	-9761
Fahr	-9762
Skat	-9763
Wett	-9764
aggy	-9765
agle	-9766
alie	-9767
alte	-9768
amar	-9769
apes	-9770
appt	-9771
axis	-9772
ehrs	-9773
ence	-9774
esma	-9775
ffiz	-9776
gert	-9777
gibt	-9778
grau	-9779
hebt	-9780
homa	-9781
iety	-9782
iken	-9783
illy	-9784
ison	-9785
ivan	-9786
ivil	-9787
izen	-9788
laus	-9789
lose	-9790
melt	-9791
nequ	-9792
ollt	-9793
omot	-9794
orte	-9795
ragt	-9796
rial	-9797
rümp	-9798
saal	-9799
stab	-9800
tory	-9801
unts	-9802
utes	-9803
warm	-9804
wirt	-9805
ätte	-9806
öser	-9807
▁Bed	-9808
▁Big	-9809
▁Brü	-9810
▁End	-9811
▁Fis	-9812
▁Gre	-9813
▁Har	-9814
▁His	-9815
▁Kid	-9816
▁Kok	-9817
▁Nad	-9818
▁Num	-9819
▁Rod	-9820
▁Sen	-9821
▁Toy	-9822
▁Yam	-9823
▁Zer	-9824
▁asc	-9825
▁bib	-9826
▁dot	-9827
▁env	-9828
▁ers	-9829
▁fal	-9830
▁fas	-9831
▁gig	-9832
▁had	-9833
▁ing	-9834
▁kap	-9835
▁key	-9836
▁les	-9837
▁loh	-9838
▁mel	-9839
▁mis	-9840
▁nun	-9841
▁our	-9842
▁prä	-9843
▁pup	-9844
▁ret	-9845
▁tap	-9846
▁tem	-9847
▁too	-9848
▁unf	-9849
▁wür	-9850
Flops	-9851
abora	-9852
agern	-9853
ahnen	-9854
altet	-9855
anion	-9856
apier	-9857
apped	-9858
aters	-9859
beled	-9860
berry	-9861
blase	-9862
borat	-9863
cloth	-9864
cular	-9865
egelt	-9866
emade	-9867
ember	-9868
farbe	-9869
field	-9870
gical	-9871
green	-9872
griff	-9873
icans	-9874
ilien	-9875
ished	-9876
itive	-9877
kommt	-9878
korat	-9879
leger	-9880
losen	-9881
neten	-9882
panic	-9883
paved	-9884
pfahl	-9885
pferd	-9886
piele	-9887
ramat	-9888
rated	-9889
reide	-9890
ridor	-9891
riert	-9892
ronen	-9893
sized	-9894
stick	-9895
▁	-9896
e	-9897
n	-9898
i	-9899
a	-9900
r	-9901
t	-9902
s	-9903
o	-9904
l	-9905
h	-9906
d	-9907
u	-9908
g	-9909
m	-9910
c	-9911
.	-9912
w	-9913
b	-9914
f	-9915
p	-9916
k	-9917
A	-9918
E	-9919
y	-9920
M	-9921
ä	-9922
z	-9923
v	-9924
S	-9925
,	-9926
F	-9927
T	-9928
H	-9929
B	-9930
ü	-9931
K	-9932
ß	-9933
G	-9934
P	-9935
j	-9936
Z	-9937
W	-9938
-	-9939
J	-9940
D	-9941
L	-9942
R	-9943
O	-9944
x	-9945
ö	-9946
V	-9947
C	-9948
N	-9949
U	-9950
I	-9951
q	-9952
'	-9953
Y	-9954
"	-9955
2	-9956
“	-9957
„	-9958
1	-9959
0	-9960
3	-9961
;	-9962
–	-9963
4	-9964
5	-9965
X	-9966
é	-9967
Q	-9968
Ä	-9969
Ü	-9970
(	-9971
!	-9972
)	-9973
6	-9974
8	-9975
9	-9976
:	-9977
&	-9978
Ö	-9979
#	-9980
?	-9981
7	-9982
/	-9983
%	-9984
@	-9985
ñ	-9986
”	-9987
`	-9988
‘	-9989
’	-9990
$	-9991
=	-9992
_	-9993
à	-9994
è	-9995
